{
  "version": "1.0",
  "truncation": null,
  "padding": null,
  "added_tokens": [
    {
      "id": 0,
      "content": "[PAD]",
      "single_word": false,
      "lstrip": false,
      "rstrip": false,
      "normalized": false,
      "special": true
    },
    {
      "id": 1,
      "content": "[UNK]",
      "single_word": false,
      "lstrip": false,
      "rstrip": false,
      "normalized": false,
      "special": true
    },
    {
      "id": 2,
      "content": "[BOS]",
      "single_word": false,
      "lstrip": false,
      "rstrip": false,
      "normalized": false,
      "special": true
    },
    {
      "id": 3,
      "content": "[EOS]",
      "single_word": false,
      "lstrip": false,
      "rstrip": false,
      "normalized": false,
      "special": true
    }
  ],
  "normalizer": {
    "type": "NFKC"
  },
  "pre_tokenizer": {
    "type": "Whitespace"
  },
  "post_processor": null,
  "decoder": null,
  "model": {
    "type": "BPE",
    "dropout": null,
    "unk_token": "[UNK]",
    "continuing_subword_prefix": null,
    "end_of_word_suffix": null,
    "fuse_unk": false,
    "byte_fallback": false,
    "ignore_merges": false,
    "vocab": {
      "[PAD]": 0,
      "[UNK]": 1,
      "[BOS]": 2,
      "[EOS]": 3,
      "!": 4,
      "\"": 5,
      "#": 6,
      "$": 7,
      "%": 8,
      "&": 9,
      "'": 10,
      "(": 11,
      ")": 12,
      "*": 13,
      "+": 14,
      ",": 15,
      "-": 16,
      ".": 17,
      "/": 18,
      "0": 19,
      "1": 20,
      "2": 21,
      "3": 22,
      "4": 23,
      "5": 24,
      "6": 25,
      "7": 26,
      "8": 27,
      "9": 28,
      ":": 29,
      ";": 30,
      "<": 31,
      "=": 32,
      ">": 33,
      "?": 34,
      "@": 35,
      "A": 36,
      "B": 37,
      "C": 38,
      "D": 39,
      "E": 40,
      "F": 41,
      "G": 42,
      "H": 43,
      "I": 44,
      "J": 45,
      "K": 46,
      "L": 47,
      "M": 48,
      "N": 49,
      "O": 50,
      "P": 51,
      "Q": 52,
      "R": 53,
      "S": 54,
      "T": 55,
      "U": 56,
      "V": 57,
      "W": 58,
      "X": 59,
      "Y": 60,
      "Z": 61,
      "[": 62,
      "\\": 63,
      "]": 64,
      "^": 65,
      "_": 66,
      "`": 67,
      "a": 68,
      "b": 69,
      "c": 70,
      "d": 71,
      "e": 72,
      "f": 73,
      "g": 74,
      "h": 75,
      "i": 76,
      "j": 77,
      "k": 78,
      "l": 79,
      "m": 80,
      "n": 81,
      "o": 82,
      "p": 83,
      "q": 84,
      "r": 85,
      "s": 86,
      "t": 87,
      "u": 88,
      "v": 89,
      "w": 90,
      "x": 91,
      "y": 92,
      "z": 93,
      "|": 94,
      "}": 95,
      "~": 96,
      "": 97,
      "": 98,
      "¡": 99,
      "¢": 100,
      "£": 101,
      "¥": 102,
      "§": 103,
      "°": 104,
      "±": 105,
      "·": 106,
      "¿": 107,
      "Á": 108,
      "Ä": 109,
      "Å": 110,
      "Æ": 111,
      "Ç": 112,
      "É": 113,
      "Í": 114,
      "Î": 115,
      "Ñ": 116,
      "Ó": 117,
      "Ö": 118,
      "×": 119,
      "Ø": 120,
      "Ú": 121,
      "Ü": 122,
      "Þ": 123,
      "ß": 124,
      "à": 125,
      "á": 126,
      "â": 127,
      "ã": 128,
      "ä": 129,
      "å": 130,
      "æ": 131,
      "ç": 132,
      "è": 133,
      "é": 134,
      "ê": 135,
      "ë": 136,
      "ì": 137,
      "í": 138,
      "î": 139,
      "ï": 140,
      "ð": 141,
      "ñ": 142,
      "ò": 143,
      "ó": 144,
      "ô": 145,
      "ö": 146,
      "ø": 147,
      "ù": 148,
      "ú": 149,
      "û": 150,
      "ü": 151,
      "ý": 152,
      "þ": 153,
      "Ā": 154,
      "ā": 155,
      "ă": 156,
      "ą": 157,
      "ć": 158,
      "Č": 159,
      "č": 160,
      "Đ": 161,
      "đ": 162,
      "Ē": 163,
      "ē": 164,
      "Ĕ": 165,
      "ĕ": 166,
      "ė": 167,
      "ę": 168,
      "ğ": 169,
      "ħ": 170,
      "ī": 171,
      "İ": 172,
      "ı": 173,
      "Ľ": 174,
      "Ł": 175,
      "ł": 176,
      "ń": 177,
      "Ō": 178,
      "ō": 179,
      "œ": 180,
      "ř": 181,
      "Ś": 182,
      "ś": 183,
      "Ş": 184,
      "ş": 185,
      "Š": 186,
      "š": 187,
      "ţ": 188,
      "ũ": 189,
      "ū": 190,
      "ů": 191,
      "ų": 192,
      "ź": 193,
      "Ż": 194,
      "ż": 195,
      "Ž": 196,
      "ž": 197,
      "ơ": 198,
      "ư": 199,
      "ǎ": 200,
      "ǔ": 201,
      "Ș": 202,
      "ș": 203,
      "ț": 204,
      "ȯ": 205,
      "ɐ": 206,
      "ɑ": 207,
      "ɒ": 208,
      "ɔ": 209,
      "ə": 210,
      "ɛ": 211,
      "ɜ": 212,
      "ɡ": 213,
      "ɢ": 214,
      "ɪ": 215,
      "ɫ": 216,
      "ɳ": 217,
      "ɽ": 218,
      "ɾ": 219,
      "ʁ": 220,
      "ʃ": 221,
      "ʊ": 222,
      "ʋ": 223,
      "ʒ": 224,
      "ʔ": 225,
      "ʕ": 226,
      "ʻ": 227,
      "ʼ": 228,
      "ʾ": 229,
      "ʿ": 230,
      "ˈ": 231,
      "ˌ": 232,
      "ː": 233,
      "́": 234,
      "̃": 235,
      "̍": 236,
      "̥": 237,
      "̯": 238,
      "͍": 239,
      "Α": 240,
      "Δ": 241,
      "Κ": 242,
      "Ν": 243,
      "Π": 244,
      "Τ": 245,
      "Φ": 246,
      "Χ": 247,
      "Ω": 248,
      "ά": 249,
      "έ": 250,
      "ή": 251,
      "ί": 252,
      "α": 253,
      "β": 254,
      "γ": 255,
      "δ": 256,
      "ε": 257,
      "η": 258,
      "θ": 259,
      "ι": 260,
      "κ": 261,
      "λ": 262,
      "μ": 263,
      "ν": 264,
      "ξ": 265,
      "ο": 266,
      "π": 267,
      "ρ": 268,
      "ς": 269,
      "σ": 270,
      "τ": 271,
      "υ": 272,
      "χ": 273,
      "ψ": 274,
      "ω": 275,
      "ό": 276,
      "ύ": 277,
      "ώ": 278,
      "А": 279,
      "Б": 280,
      "В": 281,
      "Г": 282,
      "К": 283,
      "П": 284,
      "Р": 285,
      "С": 286,
      "У": 287,
      "Х": 288,
      "Я": 289,
      "а": 290,
      "в": 291,
      "г": 292,
      "д": 293,
      "е": 294,
      "ж": 295,
      "з": 296,
      "и": 297,
      "й": 298,
      "к": 299,
      "л": 300,
      "м": 301,
      "н": 302,
      "о": 303,
      "п": 304,
      "р": 305,
      "с": 306,
      "т": 307,
      "у": 308,
      "х": 309,
      "ц": 310,
      "ш": 311,
      "ъ": 312,
      "ы": 313,
      "ь": 314,
      "ю": 315,
      "я": 316,
      "є": 317,
      "ֵ": 318,
      "ֶ": 319,
      "ָ": 320,
      "ֹ": 321,
      "ּ": 322,
      "א": 323,
      "ב": 324,
      "ג": 325,
      "ה": 326,
      "ו": 327,
      "ז": 328,
      "ח": 329,
      "י": 330,
      "ל": 331,
      "ם": 332,
      "מ": 333,
      "ן": 334,
      "נ": 335,
      "ס": 336,
      "ף": 337,
      "פ": 338,
      "צ": 339,
      "ר": 340,
      "ש": 341,
      "ת": 342,
      "ء": 343,
      "أ": 344,
      "إ": 345,
      "ا": 346,
      "ب": 347,
      "ة": 348,
      "ت": 349,
      "ث": 350,
      "ج": 351,
      "ح": 352,
      "خ": 353,
      "د": 354,
      "ذ": 355,
      "ر": 356,
      "س": 357,
      "ش": 358,
      "ص": 359,
      "ع": 360,
      "ف": 361,
      "ق": 362,
      "ك": 363,
      "ل": 364,
      "م": 365,
      "ن": 366,
      "ه": 367,
      "و": 368,
      "ي": 369,
      "ܐ": 370,
      "ܕ": 371,
      "ܗ": 372,
      "ܝ": 373,
      "ܠ": 374,
      "ܢ": 375,
      "ܬ": 376,
      "ܲ": 377,
      "ܵ": 378,
      "ं": 379,
      "अ": 380,
      "ई": 381,
      "क": 382,
      "ग": 383,
      "ण": 384,
      "त": 385,
      "द": 386,
      "न": 387,
      "प": 388,
      "ब": 389,
      "म": 390,
      "य": 391,
      "र": 392,
      "ल": 393,
      "व": 394,
      "स": 395,
      "ह": 396,
      "ा": 397,
      "ि": 398,
      "ु": 399,
      "ू": 400,
      "े": 401,
      "ै": 402,
      "्": 403,
      "আ": 404,
      "ল": 405,
      "হ": 406,
      "া": 407,
      "্": 408,
      "ਅ": 409,
      "ਲ": 410,
      "ਹ": 411,
      "ਾ": 412,
      "ੁ": 413,
      "ੱ": 414,
      "അ": 415,
      "ള": 416,
      "ഹ": 417,
      "ാ": 418,
      "്": 419,
      "ก": 420,
      "ค": 421,
      "ง": 422,
      "ช": 423,
      "ซ": 424,
      "ญ": 425,
      "ฐ": 426,
      "ณ": 427,
      "ด": 428,
      "ต": 429,
      "น": 430,
      "บ": 431,
      "ป": 432,
      "พ": 433,
      "ภ": 434,
      "ม": 435,
      "ย": 436,
      "ร": 437,
      "ล": 438,
      "ว": 439,
      "ศ": 440,
      "ษ": 441,
      "ส": 442,
      "ห": 443,
      "อ": 444,
      "ฮ": 445,
      "ะ": 446,
      "ั": 447,
      "า": 448,
      "ิ": 449,
      "ี": 450,
      "ึ": 451,
      "เ": 452,
      "แ": 453,
      "ไ": 454,
      "็": 455,
      "่": 456,
      "้": 457,
      "๊": 458,
      "์": 459,
      "Ⴀ": 460,
      "Ⴂ": 461,
      "Ⴃ": 462,
      "Ⴈ": 463,
      "Ⴌ": 464,
      "Ⴕ": 465,
      "Ⴟ": 466,
      "ა": 467,
      "ბ": 468,
      "გ": 469,
      "დ": 470,
      "ე": 471,
      "ვ": 472,
      "ზ": 473,
      "თ": 474,
      "ი": 475,
      "კ": 476,
      "ლ": 477,
      "მ": 478,
      "ნ": 479,
      "ო": 480,
      "პ": 481,
      "ჟ": 482,
      "რ": 483,
      "ს": 484,
      "ტ": 485,
      "უ": 486,
      "ფ": 487,
      "ქ": 488,
      "ღ": 489,
      "ყ": 490,
      "შ": 491,
      "ჩ": 492,
      "ც": 493,
      "ძ": 494,
      "წ": 495,
      "ჭ": 496,
      "ხ": 497,
      "ჯ": 498,
      "ჰ": 499,
      "ჱ": 500,
      "ჲ": 501,
      "ჳ": 502,
      "ჴ": 503,
      "ჵ": 504,
      "ჶ": 505,
      "ჷ": 506,
      "ჸ": 507,
      "ჹ": 508,
      "ჺ": 509,
      "჻": 510,
      "ᵻ": 511,
      "ḍ": 512,
      "ḏ": 513,
      "Ḥ": 514,
      "ḥ": 515,
      "ḷ": 516,
      "ṃ": 517,
      "ṅ": 518,
      "ṇ": 519,
      "ṛ": 520,
      "ṣ": 521,
      "ṭ": 522,
      "ṯ": 523,
      "ạ": 524,
      "ả": 525,
      "ấ": 526,
      "ầ": 527,
      "ậ": 528,
      "ắ": 529,
      "ễ": 530,
      "ệ": 531,
      "ị": 532,
      "ọ": 533,
      "ỏ": 534,
      "ỗ": 535,
      "ộ": 536,
      "ớ": 537,
      "ứ": 538,
      "ử": 539,
      "ữ": 540,
      "ỳ": 541,
      "ỹ": 542,
      "ἀ": 543,
      "ἰ": 544,
      "ὀ": 545,
      "ὁ": 546,
      "ὑ": 547,
      "​": 548,
      "‐": 549,
      "–": 550,
      "—": 551,
      "―": 552,
      "‘": 553,
      "’": 554,
      "“": 555,
      "”": 556,
      "„": 557,
      "†": 558,
      "‡": 559,
      "•": 560,
      "′": 561,
      "⁄": 562,
      "₣": 563,
      "₤": 564,
      "€": 565,
      "₹": 566,
      "→": 567,
      "−": 568,
      "≡": 569,
      "≤": 570,
      "☉": 571,
      "☫": 572,
      "♀": 573,
      "♭": 574,
      "♯": 575,
      "⚳": 576,
      "〈": 577,
      "〉": 578,
      "〜": 579,
      "あ": 580,
      "い": 581,
      "う": 582,
      "お": 583,
      "か": 584,
      "が": 585,
      "き": 586,
      "ぎ": 587,
      "く": 588,
      "ぐ": 589,
      "け": 590,
      "こ": 591,
      "ご": 592,
      "さ": 593,
      "し": 594,
      "す": 595,
      "ず": 596,
      "ぜ": 597,
      "た": 598,
      "だ": 599,
      "ち": 600,
      "っ": 601,
      "つ": 602,
      "と": 603,
      "な": 604,
      "に": 605,
      "の": 606,
      "は": 607,
      "ば": 608,
      "ひ": 609,
      "ふ": 610,
      "ほ": 611,
      "ま": 612,
      "み": 613,
      "め": 614,
      "も": 615,
      "ゃ": 616,
      "ゆ": 617,
      "ょ": 618,
      "ら": 619,
      "り": 620,
      "る": 621,
      "れ": 622,
      "わ": 623,
      "を": 624,
      "ん": 625,
      "ァ": 626,
      "ア": 627,
      "ィ": 628,
      "イ": 629,
      "ゥ": 630,
      "ェ": 631,
      "エ": 632,
      "ォ": 633,
      "オ": 634,
      "カ": 635,
      "ガ": 636,
      "キ": 637,
      "ク": 638,
      "グ": 639,
      "ゲ": 640,
      "コ": 641,
      "サ": 642,
      "シ": 643,
      "ジ": 644,
      "ス": 645,
      "ズ": 646,
      "セ": 647,
      "タ": 648,
      "ダ": 649,
      "チ": 650,
      "ッ": 651,
      "ツ": 652,
      "テ": 653,
      "デ": 654,
      "ト": 655,
      "ド": 656,
      "ナ": 657,
      "ニ": 658,
      "ネ": 659,
      "ノ": 660,
      "ハ": 661,
      "バ": 662,
      "パ": 663,
      "フ": 664,
      "ブ": 665,
      "プ": 666,
      "ヘ": 667,
      "ベ": 668,
      "マ": 669,
      "ミ": 670,
      "ム": 671,
      "モ": 672,
      "ャ": 673,
      "ュ": 674,
      "ョ": 675,
      "ラ": 676,
      "リ": 677,
      "ル": 678,
      "レ": 679,
      "ロ": 680,
      "ン": 681,
      "ヴ": 682,
      "・": 683,
      "ー": 684,
      "一": 685,
      "七": 686,
      "下": 687,
      "世": 688,
      "丙": 689,
      "中": 690,
      "主": 691,
      "乃": 692,
      "之": 693,
      "乙": 694,
      "九": 695,
      "二": 696,
      "云": 697,
      "人": 698,
      "今": 699,
      "付": 700,
      "作": 701,
      "侗": 702,
      "依": 703,
      "信": 704,
      "傳": 705,
      "儚": 706,
      "充": 707,
      "光": 708,
      "全": 709,
      "兵": 710,
      "其": 711,
      "具": 712,
      "円": 713,
      "再": 714,
      "出": 715,
      "判": 716,
      "前": 717,
      "剛": 718,
      "劇": 719,
      "劉": 720,
      "動": 721,
      "化": 722,
      "北": 723,
      "华": 724,
      "厂": 725,
      "去": 726,
      "古": 727,
      "可": 728,
      "台": 729,
      "史": 730,
      "同": 731,
      "名": 732,
      "君": 733,
      "吳": 734,
      "周": 735,
      "命": 736,
      "和": 737,
      "咲": 738,
      "善": 739,
      "四": 740,
      "國": 741,
      "園": 742,
      "圣": 743,
      "在": 744,
      "坂": 745,
      "堤": 746,
      "場": 747,
      "塘": 748,
      "夕": 749,
      "大": 750,
      "天": 751,
      "夫": 752,
      "女": 753,
      "妙": 754,
      "姚": 755,
      "子": 756,
      "孟": 757,
      "守": 758,
      "安": 759,
      "宋": 760,
      "完": 761,
      "宗": 762,
      "宝": 763,
      "宫": 764,
      "寝": 765,
      "寺": 766,
      "小": 767,
      "少": 768,
      "尾": 769,
      "山": 770,
      "岳": 771,
      "川": 772,
      "州": 773,
      "巳": 774,
      "市": 775,
      "師": 776,
      "平": 777,
      "广": 778,
      "庆": 779,
      "府": 780,
      "座": 781,
      "廬": 782,
      "建": 783,
      "式": 784,
      "張": 785,
      "彌": 786,
      "彩": 787,
      "彼": 788,
      "後": 789,
      "御": 790,
      "德": 791,
      "思": 792,
      "愛": 793,
      "憑": 794,
      "憶": 795,
      "應": 796,
      "懷": 797,
      "战": 798,
      "戦": 799,
      "扈": 800,
      "技": 801,
      "拉": 802,
      "拳": 803,
      "挑": 804,
      "揺": 805,
      "攻": 806,
      "放": 807,
      "政": 808,
      "散": 809,
      "斯": 810,
      "方": 811,
      "日": 812,
      "旦": 813,
      "旭": 814,
      "昌": 815,
      "明": 816,
      "星": 817,
      "春": 818,
      "晋": 819,
      "景": 820,
      "曦": 821,
      "月": 822,
      "望": 823,
      "未": 824,
      "本": 825,
      "李": 826,
      "村": 827,
      "杜": 828,
      "束": 829,
      "来": 830,
      "林": 831,
      "桜": 832,
      "梶": 833,
      "棘": 834,
      "椎": 835,
      "楊": 836,
      "楚": 837,
      "榮": 838,
      "橘": 839,
      "機": 840,
      "正": 841,
      "殻": 842,
      "殿": 843,
      "母": 844,
      "水": 845,
      "汉": 846,
      "沂": 847,
      "沙": 848,
      "河": 849,
      "泗": 850,
      "波": 851,
      "泣": 852,
      "洪": 853,
      "淹": 854,
      "清": 855,
      "湯": 856,
      "漢": 857,
      "澄": 858,
      "澤": 859,
      "火": 860,
      "灯": 861,
      "灵": 862,
      "灼": 863,
      "焼": 864,
      "熱": 865,
      "物": 866,
      "狐": 867,
      "狸": 868,
      "玄": 869,
      "王": 870,
      "玩": 871,
      "珂": 872,
      "珙": 873,
      "球": 874,
      "理": 875,
      "琦": 876,
      "琪": 877,
      "瓊": 878,
      "生": 879,
      "田": 880,
      "畢": 881,
      "番": 882,
      "瘡": 883,
      "白": 884,
      "皮": 885,
      "真": 886,
      "砲": 887,
      "礮": 888,
      "祈": 889,
      "神": 890,
      "祠": 891,
      "秋": 892,
      "空": 893,
      "立": 894,
      "精": 895,
      "約": 896,
      "絵": 897,
      "織": 898,
      "義": 899,
      "翠": 900,
      "者": 901,
      "耕": 902,
      "肖": 903,
      "胡": 904,
      "膀": 905,
      "臂": 906,
      "興": 907,
      "良": 908,
      "花": 909,
      "芳": 910,
      "芽": 911,
      "若": 912,
      "英": 913,
      "藕": 914,
      "藥": 915,
      "蘄": 916,
      "蘇": 917,
      "行": 918,
      "裁": 919,
      "規": 920,
      "覺": 921,
      "观": 922,
      "解": 923,
      "記": 924,
      "誓": 925,
      "誡": 926,
      "誰": 927,
      "謎": 928,
      "许": 929,
      "谭": 930,
      "豪": 931,
      "豫": 932,
      "費": 933,
      "贵": 934,
      "赤": 935,
      "趙": 936,
      "足": 937,
      "跡": 938,
      "転": 939,
      "辛": 940,
      "逆": 941,
      "遇": 942,
      "運": 943,
      "過": 944,
      "遠": 945,
      "選": 946,
      "邦": 947,
      "邱": 948,
      "部": 949,
      "郭": 950,
      "都": 951,
      "酈": 952,
      "里": 953,
      "野": 954,
      "金": 955,
      "銃": 956,
      "鋼": 957,
      "錄": 958,
      "錡": 959,
      "鍵": 960,
      "鐵": 961,
      "钱": 962,
      "铁": 963,
      "關": 964,
      "防": 965,
      "阿": 966,
      "陈": 967,
      "陳": 968,
      "陽": 969,
      "隊": 970,
      "階": 971,
      "集": 972,
      "雪": 973,
      "雲": 974,
      "霖": 975,
      "霹": 976,
      "靂": 977,
      "韓": 978,
      "願": 979,
      "顯": 980,
      "颜": 981,
      "马": 982,
      "高": 983,
      "龍": 984,
      "대": 985,
      "독": 986,
      "라": 987,
      "립": 988,
      "병": 989,
      "보": 990,
      "부": 991,
      "알": 992,
      "연": 993,
      "제": 994,
      "﻿": 995,
      "�": 996,
      "th": 997,
      "in": 998,
      "er": 999,
      "an": 1000,
      "the": 1001,
      "on": 1002,
      "ed": 1003,
      "re": 1004,
      "at": 1005,
      "or": 1006,
      "en": 1007,
      "st": 1008,
      "al": 1009,
      "ar": 1010,
      "and": 1011,
      "of": 1012,
      "as": 1013,
      "es": 1014,
      "is": 1015,
      "ing": 1016,
      "to": 1017,
      "it": 1018,
      "ou": 1019,
      "ic": 1020,
      "ion": 1021,
      "he": 1022,
      "le": 1023,
      "ro": 1024,
      "ac": 1025,
      "il": 1026,
      "ent": 1027,
      "ad": 1028,
      "se": 1029,
      "am": 1030,
      "om": 1031,
      "be": 1032,
      "ly": 1033,
      "ch": 1034,
      "ur": 1035,
      "was": 1036,
      "for": 1037,
      "de": 1038,
      "ve": 1039,
      "The": 1040,
      "ol": 1041,
      "ir": 1042,
      "im": 1043,
      "-@": 1044,
      "@-@": 1045,
      "ig": 1046,
      "ver": 1047,
      "ow": 1048,
      "wh": 1049,
      "un": 1050,
      "ter": 1051,
      "ith": 1052,
      "ay": 1053,
      "ce": 1054,
      "ation": 1055,
      "con": 1056,
      "that": 1057,
      "with": 1058,
      "ag": 1059,
      "ct": 1060,
      "id": 1061,
      "te": 1062,
      "us": 1063,
      "by": 1064,
      "el": 1065,
      "ul": 1066,
      "ri": 1067,
      "ot": 1068,
      "ere": 1069,
      "ap": 1070,
      "res": 1071,
      "et": 1072,
      "19": 1073,
      "op": 1074,
      "ain": 1075,
      "com": 1076,
      "rom": 1077,
      "ers": 1078,
      "pl": 1079,
      "um": 1080,
      "ut": 1081,
      "ab": 1082,
      "oun": 1083,
      "all": 1084,
      "00": 1085,
      "his": 1086,
      "mo": 1087,
      "ist": 1088,
      "su": 1089,
      "are": 1090,
      "from": 1091,
      "pe": 1092,
      "pro": 1093,
      "In": 1094,
      "sh": 1095,
      "ne": 1096,
      "li": 1097,
      "tr": 1098,
      "ate": 1099,
      "cl": 1100,
      "os": 1101,
      "ther": 1102,
      "art": 1103,
      "ies": 1104,
      "em": 1105,
      "were": 1106,
      "od": 1107,
      "ong": 1108,
      "igh": 1109,
      "est": 1110,
      "ex": 1111,
      "ak": 1112,
      "oc": 1113,
      "ill": 1114,
      "ard": 1115,
      "ld": 1116,
      "ich": 1117,
      "ast": 1118,
      "ish": 1119,
      "di": 1120,
      "ber": 1121,
      "ant": 1122,
      "gh": 1123,
      "ity": 1124,
      "ort": 1125,
      "ame": 1126,
      "ated": 1127,
      "per": 1128,
      "man": 1129,
      "ess": 1130,
      "ive": 1131,
      "qu": 1132,
      "ment": 1133,
      "als": 1134,
      "out": 1135,
      "fe": 1136,
      "ack": 1137,
      "end": 1138,
      "vi": 1139,
      "had": 1140,
      "one": 1141,
      "ear": 1142,
      "tw": 1143,
      "over": 1144,
      "ough": 1145,
      "our": 1146,
      "ha": 1147,
      "which": 1148,
      "ord": 1149,
      "ra": 1150,
      "ge": 1151,
      "ound": 1152,
      "not": 1153,
      "ine": 1154,
      "rit": 1155,
      "but": 1156,
      "ally": 1157,
      "ass": 1158,
      "gr": 1159,
      "ud": 1160,
      "if": 1161,
      "ip": 1162,
      "act": 1163,
      "iv": 1164,
      "its": 1165,
      "Ch": 1166,
      "ian": 1167,
      "str": 1168,
      "ight": 1169,
      "ary": 1170,
      "her": 1171,
      "du": 1172,
      "fir": 1173,
      "own": 1174,
      "200": 1175,
      "av": 1176,
      "af": 1177,
      "up": 1178,
      "ous": 1179,
      "po": 1180,
      "20": 1181,
      "bl": 1182,
      "ore": 1183,
      "comp": 1184,
      "port": 1185,
      "St": 1186,
      "land": 1187,
      "ew": 1188,
      "der": 1189,
      "ev": 1190,
      "ach": 1191,
      "si": 1192,
      "their": 1193,
      "ep": 1194,
      "ical": 1195,
      "first": 1196,
      "wor": 1197,
      "ould": 1198,
      "age": 1199,
      "ia": 1200,
      "pr": 1201,
      "ll": 1202,
      "bo": 1203,
      "au": 1204,
      "ition": 1205,
      "also": 1206,
      "tim": 1207,
      "low": 1208,
      "ction": 1209,
      "pt": 1210,
      "lo": 1211,
      "form": 1212,
      "ater": 1213,
      "sc": 1214,
      "ign": 1215,
      "has": 1216,
      "ser": 1217,
      "ure": 1218,
      "ke": 1219,
      "att": 1220,
      "int": 1221,
      "ial": 1222,
      "rec": 1223,
      "play": 1224,
      "have": 1225,
      "other": 1226,
      "He": 1227,
      "18": 1228,
      "who": 1229,
      "ok": 1230,
      "ran": 1231,
      "ome": 1232,
      "part": 1233,
      "ence": 1234,
      "gu": 1235,
      "been": 1236,
      "two": 1237,
      "ree": 1238,
      "cont": 1239,
      ".@": 1240,
      "@.@": 1241,
      "pres": 1242,
      "aw": 1243,
      "uring": 1244,
      "off": 1245,
      "dis": 1246,
      "ile": 1247,
      "ory": 1248,
      "this": 1249,
      "sp": 1250,
      "me": 1251,
      "It": 1252,
      "des": 1253,
      "ade": 1254,
      "ult": 1255,
      "ite": 1256,
      "pos": 1257,
      "year": 1258,
      "they": 1259,
      "comm": 1260,
      "201": 1261,
      "cre": 1262,
      "vel": 1263,
      "An": 1264,
      "ell": 1265,
      "Th": 1266,
      "we": 1267,
      "after": 1268,
      "ans": 1269,
      "fin": 1270,
      "ren": 1271,
      "cent": 1272,
      "og": 1273,
      "ved": 1274,
      "br": 1275,
      "incl": 1276,
      "ations": 1277,
      "ue": 1278,
      "able": 1279,
      ",@": 1280,
      "@,@": 1281,
      "ice": 1282,
      "work": 1283,
      "urn": 1284,
      "ever": 1285,
      "ace": 1286,
      "no": 1287,
      "pre": 1288,
      "ric": 1289,
      "ark": 1290,
      "mer": 1291,
      "iz": 1292,
      "time": 1293,
      "Un": 1294,
      "ff": 1295,
      "ens": 1296,
      "co": 1297,
      "spe": 1298,
      "ance": 1299,
      "into": 1300,
      "ions": 1301,
      "more": 1302,
      "ship": 1303,
      "any": 1304,
      "ount": 1305,
      "ces": 1306,
      "most": 1307,
      "amp": 1308,
      "ath": 1309,
      "ced": 1310,
      "inter": 1311,
      "she": 1312,
      "tem": 1313,
      "red": 1314,
      "ason": 1315,
      "would": 1316,
      "Al": 1317,
      "cond": 1318,
      "him": 1319,
      "old": 1320,
      "ph": 1321,
      "ann": 1322,
      "used": 1323,
      "main": 1324,
      "ang": 1325,
      "ited": 1326,
      "cted": 1327,
      "ire": 1328,
      "ings": 1329,
      "ased": 1330,
      "fl": 1331,
      "ie": 1332,
      "fore": 1333,
      "bec": 1334,
      "mon": 1335,
      "min": 1336,
      "includ": 1337,
      "though": 1338,
      "ates": 1339,
      "ict": 1340,
      "Ar": 1341,
      "air": 1342,
      "way": 1343,
      "Au": 1344,
      "row": 1345,
      "vers": 1346,
      "new": 1347,
      "vis": 1348,
      "ail": 1349,
      "rough": 1350,
      "ood": 1351,
      "ft": 1352,
      "ake": 1353,
      "bu": 1354,
      "ob": 1355,
      "ase": 1356,
      "ry": 1357,
      "ick": 1358,
      "ents": 1359,
      "cess": 1360,
      "song": 1361,
      "ild": 1362,
      "only": 1363,
      "when": 1364,
      "arch": 1365,
      "gan": 1366,
      "under": 1367,
      "ubl": 1368,
      "reg": 1369,
      "ble": 1370,
      "them": 1371,
      "iss": 1372,
      "ors": 1373,
      "les": 1374,
      "col": 1375,
      "ose": 1376,
      "En": 1377,
      "during": 1378,
      "day": 1379,
      "ind": 1380,
      "kn": 1381,
      "ret": 1382,
      "game": 1383,
      "son": 1384,
      "ered": 1385,
      "Re": 1386,
      "ilm": 1387,
      "ward": 1388,
      "een": 1389,
      "gen": 1390,
      "ru": 1391,
      "can": 1392,
      "ollow": 1393,
      "outh": 1394,
      "about": 1395,
      "ide": 1396,
      "199": 1397,
      "ts": 1398,
      "season": 1399,
      "than": 1400,
      "nor": 1401,
      "ten": 1402,
      "lar": 1403,
      "oy": 1404,
      "some": 1405,
      "ern": 1406,
      "writ": 1407,
      "sy": 1408,
      "char": 1409,
      "while": 1410,
      "again": 1411,
      "three": 1412,
      "stru": 1413,
      "ational": 1414,
      "ular": 1415,
      "Com": 1416,
      "ty": 1417,
      "On": 1418,
      "so": 1419,
      "ful": 1420,
      "Wh": 1421,
      "tween": 1422,
      "between": 1423,
      "num": 1424,
      "produ": 1425,
      "record": 1426,
      "ron": 1427,
      "through": 1428,
      "ted": 1429,
      "ating": 1430,
      "where": 1431,
      "As": 1432,
      "ied": 1433,
      "later": 1434,
      "10": 1435,
      "rele": 1436,
      "spec": 1437,
      "view": 1438,
      "ames": 1439,
      "film": 1440,
      "ton": 1441,
      "cons": 1442,
      "ele": 1443,
      "ef": 1444,
      "rel": 1445,
      "ck": 1446,
      "Af": 1447,
      "ust": 1448,
      "ished": 1449,
      "set": 1450,
      "made": 1451,
      "Le": 1452,
      "sub": 1453,
      "ury": 1454,
      "my": 1455,
      "then": 1456,
      "New": 1457,
      "led": 1458,
      "do": 1459,
      "aid": 1460,
      "meric": 1461,
      "Americ": 1462,
      "bum": 1463,
      "ock": 1464,
      "ins": 1465,
      "sel": 1466,
      "ma": 1467,
      "appe": 1468,
      "sing": 1469,
      "000": 1470,
      "Jo": 1471,
      "follow": 1472,
      "go": 1473,
      "ters": 1474,
      "high": 1475,
      "..": 1476,
      "second": 1477,
      "such": 1478,
      "rop": 1479,
      "ving": 1480,
      "four": 1481,
      "cap": 1482,
      "ari": 1483,
      "publ": 1484,
      "je": 1485,
      "ics": 1486,
      "16": 1487,
      "med": 1488,
      "well": 1489,
      "iel": 1490,
      "back": 1491,
      "At": 1492,
      "mus": 1493,
      "De": 1494,
      "ily": 1495,
      "This": 1496,
      "ual": 1497,
      "ific": 1498,
      "call": 1499,
      "ven": 1500,
      "album": 1501,
      "before": 1502,
      "mi": 1503,
      "cri": 1504,
      "cur": 1505,
      "fer": 1506,
      "hel": 1507,
      "urch": 1508,
      "ars": 1509,
      "sup": 1510,
      "found": 1511,
      "12": 1512,
      "Eng": 1513,
      "being": 1514,
      "No": 1515,
      "ub": 1516,
      "there": 1517,
      "years": 1518,
      "ative": 1519,
      "sur": 1520,
      "15": 1521,
      "arri": 1522,
      "inn": 1523,
      "owever": 1524,
      "par": 1525,
      "use": 1526,
      "ale": 1527,
      "17": 1528,
      "ane": 1529,
      "add": 1530,
      "many": 1531,
      "known": 1532,
      "side": 1533,
      "long": 1534,
      "like": 1535,
      "number": 1536,
      "loc": 1537,
      "ave": 1538,
      "Nor": 1539,
      "point": 1540,
      "ird": 1541,
      "ities": 1542,
      "ros": 1543,
      "series": 1544,
      "velop": 1545,
      "olog": 1546,
      "ause": 1547,
      "reat": 1548,
      "mber": 1549,
      "ince": 1550,
      "unt": 1551,
      "orn": 1552,
      "cept": 1553,
      "line": 1554,
      "Con": 1555,
      "ines": 1556,
      "cho": 1557,
      "both": 1558,
      "sever": 1559,
      "eng": 1560,
      "hn": 1561,
      "pop": 1562,
      "dire": 1563,
      "ise": 1564,
      "Brit": 1565,
      "epis": 1566,
      "ments": 1567,
      "including": 1568,
      "atch": 1569,
      "down": 1570,
      "igin": 1571,
      "against": 1572,
      "ode": 1573,
      "became": 1574,
      "uary": 1575,
      "oup": 1576,
      "charac": 1577,
      "Sh": 1578,
      "ress": 1579,
      "II": 1580,
      "feat": 1581,
      "ident": 1582,
      "ci": 1583,
      "198": 1584,
      "cer": 1585,
      "ek": 1586,
      "ond": 1587,
      "tain": 1588,
      "ield": 1589,
      "30": 1590,
      "Be": 1591,
      "ped": 1592,
      "descri": 1593,
      "Ro": 1594,
      "appear": 1595,
      "ost": 1596,
      "United": 1597,
      "ised": 1598,
      "cle": 1599,
      "team": 1600,
      "John": 1601,
      "dec": 1602,
      "ures": 1603,
      "hy": 1604,
      "run": 1605,
      "suc": 1606,
      "bed": 1607,
      "develop": 1608,
      "peri": 1609,
      "century": 1610,
      "show": 1611,
      "After": 1612,
      "hist": 1613,
      "lead": 1614,
      "mem": 1615,
      "contin": 1616,
      "uch": 1617,
      "stor": 1618,
      "trans": 1619,
      "origin": 1620,
      "head": 1621,
      "lan": 1622,
      "mill": 1623,
      "pol": 1624,
      "194": 1625,
      "let": 1626,
      "ste": 1627,
      "oper": 1628,
      "west": 1629,
      "ley": 1630,
      "dam": 1631,
      "ball": 1632,
      "ves": 1633,
      "road": 1634,
      "sign": 1635,
      "sm": 1636,
      "several": 1637,
      "diff": 1638,
      "may": 1639,
      "began": 1640,
      "196": 1641,
      "ually": 1642,
      "She": 1643,
      "eral": 1644,
      "197": 1645,
      "Br": 1646,
      "une": 1647,
      "ject": 1648,
      "remain": 1649,
      "cord": 1650,
      "Se": 1651,
      "near": 1652,
      "early": 1653,
      "present": 1654,
      "war": 1655,
      "crit": 1656,
      "met": 1657,
      "nam": 1658,
      "cover": 1659,
      "ended": 1660,
      "az": 1661,
      "cy": 1662,
      "could": 1663,
      "did": 1664,
      "Mar": 1665,
      "ms": 1666,
      "called": 1667,
      "try": 1668,
      "Wor": 1669,
      "episode": 1670,
      "io": 1671,
      "leg": 1672,
      "por": 1673,
      "dep": 1674,
      "ople": 1675,
      "self": 1676,
      "For": 1677,
      "ib": 1678,
      "rece": 1679,
      "along": 1680,
      "aking": 1681,
      "vid": 1682,
      "large": 1683,
      "ash": 1684,
      "Is": 1685,
      "dist": 1686,
      "gg": 1687,
      "val": 1688,
      "13": 1689,
      "mil": 1690,
      "May": 1691,
      "pass": 1692,
      "said": 1693,
      "American": 1694,
      "ink": 1695,
      "ese": 1696,
      "press": 1697,
      "gust": 1698,
      "erson": 1699,
      "success": 1700,
      "tow": 1701,
      "these": 1702,
      "ized": 1703,
      "now": 1704,
      "open": 1705,
      "grap": 1706,
      "14": 1707,
      "ca": 1708,
      "tri": 1709,
      "Ger": 1710,
      "stem": 1711,
      "fam": 1712,
      "rist": 1713,
      "British": 1714,
      "50": 1715,
      "music": 1716,
      "until": 1717,
      "city": 1718,
      "start": 1719,
      "overn": 1720,
      "ross": 1721,
      "comple": 1722,
      "released": 1723,
      "xt": 1724,
      "Gr": 1725,
      "less": 1726,
      "itt": 1727,
      "same": 1728,
      "thern": 1729,
      "ived": 1730,
      "vol": 1731,
      "ists": 1732,
      "ah": 1733,
      "sim": 1734,
      "jor": 1735,
      "return": 1736,
      "plac": 1737,
      "ious": 1738,
      "km": 1739,
      "They": 1740,
      "state": 1741,
      "ank": 1742,
      "area": 1743,
      "design": 1744,
      "read": 1745,
      "oci": 1746,
      "million": 1747,
      "ouse": 1748,
      "fect": 1749,
      "formed": 1750,
      "men": 1751,
      "because": 1752,
      "oot": 1753,
      "ower": 1754,
      "each": 1755,
      "War": 1756,
      "offic": 1757,
      "Car": 1758,
      "che": 1759,
      "enn": 1760,
      "August": 1761,
      "la": 1762,
      "coun": 1763,
      "vide": 1764,
      "come": 1765,
      "Sep": 1766,
      "serv": 1767,
      "dr": 1768,
      "life": 1769,
      "east": 1770,
      "people": 1771,
      "chool": 1772,
      "ple": 1773,
      "car": 1774,
      "national": 1775,
      "book": 1776,
      "ris": 1777,
      "bod": 1778,
      "rote": 1779,
      "stral": 1780,
      "light": 1781,
      "six": 1782,
      "Eu": 1783,
      "support": 1784,
      "field": 1785,
      "Ju": 1786,
      "Col": 1787,
      "ather": 1788,
      "group": 1789,
      "iver": 1790,
      "around": 1791,
      "top": 1792,
      "ured": 1793,
      "Fe": 1794,
      "ision": 1795,
      "However": 1796,
      "Pl": 1797,
      "vent": 1798,
      "dom": 1799,
      "sol": 1800,
      "mark": 1801,
      "prote": 1802,
      "north": 1803,
      "consid": 1804,
      "character": 1805,
      "attack": 1806,
      "ales": 1807,
      "tember": 1808,
      "September": 1809,
      "will": 1810,
      "continu": 1811,
      "small": 1812,
      "get": 1813,
      "ext": 1814,
      "Bl": 1815,
      "position": 1816,
      "rest": 1817,
      "following": 1818,
      "ground": 1819,
      "World": 1820,
      "oth": 1821,
      "US": 1822,
      "fun": 1823,
      "stud": 1824,
      "contro": 1825,
      "Austral": 1826,
      "very": 1827,
      "ina": 1828,
      "lish": 1829,
      "requ": 1830,
      "Her": 1831,
      "ivers": 1832,
      "ural": 1833,
      "five": 1834,
      "stand": 1835,
      "ional": 1836,
      "result": 1837,
      "aim": 1838,
      "tit": 1839,
      "bers": 1840,
      "atter": 1841,
      "track": 1842,
      "gy": 1843,
      "ague": 1844,
      "ctor": 1845,
      "miss": 1846,
      "pon": 1847,
      "def": 1848,
      "what": 1849,
      "name": 1850,
      "cording": 1851,
      "11": 1852,
      "bre": 1853,
      "aged": 1854,
      "North": 1855,
      "Gu": 1856,
      "Me": 1857,
      "Fran": 1858,
      "report": 1859,
      "gun": 1860,
      "ired": 1861,
      "ism": 1862,
      "Wil": 1863,
      "cr": 1864,
      "cut": 1865,
      "ony": 1866,
      "prom": 1867,
      "played": 1868,
      "June": 1869,
      "allow": 1870,
      "cour": 1871,
      "tal": 1872,
      "week": 1873,
      "govern": 1874,
      "late": 1875,
      "ask": 1876,
      "ages": 1877,
      "oman": 1878,
      "0s": 1879,
      "ham": 1880,
      "Oc": 1881,
      "care": 1882,
      "ys": 1883,
      "vision": 1884,
      "cast": 1885,
      "Man": 1886,
      "25": 1887,
      "Jan": 1888,
      "dra": 1889,
      "final": 1890,
      "public": 1891,
      "ately": 1892,
      "since": 1893,
      "States": 1894,
      "Ac": 1895,
      "Cl": 1896,
      "ime": 1897,
      "species": 1898,
      "major": 1899,
      "ined": 1900,
      "reach": 1901,
      "count": 1902,
      "ling": 1903,
      "ained": 1904,
      "south": 1905,
      "received": 1906,
      "Mon": 1907,
      "South": 1908,
      "child": 1909,
      "app": 1910,
      "even": 1911,
      "build": 1912,
      "list": 1913,
      "last": 1914,
      "took": 1915,
      "appro": 1916,
      "class": 1917,
      "partic": 1918,
      "batt": 1919,
      "won": 1920,
      "ility": 1921,
      "Christ": 1922,
      "just": 1923,
      "star": 1924,
      "system": 1925,
      "King": 1926,
      "gre": 1927,
      "organ": 1928,
      "ork": 1929,
      "wards": 1930,
      "oss": 1931,
      "vari": 1932,
      "ilt": 1933,
      "described": 1934,
      "Par": 1935,
      "inc": 1936,
      "ains": 1937,
      "world": 1938,
      "named": 1939,
      "town": 1940,
      "place": 1941,
      "giv": 1942,
      "ards": 1943,
      "tober": 1944,
      "October": 1945,
      "band": 1946,
      "moved": 1947,
      "All": 1948,
      "pri": 1949,
      "ery": 1950,
      "constru": 1951,
      "liam": 1952,
      "ute": 1953,
      "water": 1954,
      "incre": 1955,
      "ude": 1956,
      "vious": 1957,
      "ropical": 1958,
      "aur": 1959,
      "ants": 1960,
      "ets": 1961,
      "kill": 1962,
      "...": 1963,
      "sequ": 1964,
      "wrote": 1965,
      "York": 1966,
      "July": 1967,
      "camp": 1968,
      "hand": 1969,
      "Can": 1970,
      "ix": 1971,
      "due": 1972,
      "West": 1973,
      "ats": 1974,
      "ored": 1975,
      "ae": 1976,
      "rown": 1977,
      "ium": 1978,
      "During": 1979,
      "much": 1980,
      "fur": 1981,
      "power": 1982,
      "single": 1983,
      "Apr": 1984,
      "April": 1985,
      "ently": 1986,
      "ons": 1987,
      "ature": 1988,
      "tempt": 1989,
      "hum": 1990,
      "ically": 1991,
      "differ": 1992,
      "death": 1993,
      "Euro": 1994,
      "ital": 1995,
      "order": 1996,
      "hal": 1997,
      "ove": 1998,
      "Mc": 1999,
      "tra": 2000,
      "gener": 2001,
      "German": 2002,
      "another": 2003,
      "195": 2004,
      "ships": 2005,
      "short": 2006,
      "included": 2007,
      "Sc": 2008,
      "arm": 2009,
      "ement": 2010,
      "event": 2011,
      "Ste": 2012,
      "person": 2013,
      "right": 2014,
      "January": 2015,
      "estab": 2016,
      "akes": 2017,
      "within": 2018,
      "England": 2019,
      "pect": 2020,
      "ians": 2021,
      "sent": 2022,
      "left": 2023,
      "based": 2024,
      "cas": 2025,
      "built": 2026,
      "fall": 2027,
      "beli": 2028,
      "claim": 2029,
      "although": 2030,
      "attempt": 2031,
      "ified": 2032,
      "family": 2033,
      "Ge": 2034,
      "March": 2035,
      "home": 2036,
      "games": 2037,
      "third": 2038,
      "ense": 2039,
      "que": 2040,
      "jo": 2041,
      "turn": 2042,
      "best": 2043,
      "dest": 2044,
      "Nove": 2045,
      "school": 2046,
      "previous": 2047,
      "ting": 2048,
      "roy": 2049,
      "ax": 2050,
      "story": 2051,
      "ulation": 2052,
      "193": 2053,
      "expl": 2054,
      "November": 2055,
      "review": 2056,
      "ilar": 2057,
      "And": 2058,
      "ially": 2059,
      "issu": 2060,
      "period": 2061,
      "His": 2062,
      "By": 2063,
      "ops": 2064,
      "flu": 2065,
      "government": 2066,
      "Europe": 2067,
      "ster": 2068,
      "Pr": 2069,
      "Sp": 2070,
      "adv": 2071,
      "chan": 2072,
      "mar": 2073,
      "ls": 2074,
      "Dece": 2075,
      "make": 2076,
      "Ad": 2077,
      "mb": 2078,
      "using": 2079,
      "December": 2080,
      "those": 2081,
      "Pro": 2082,
      "We": 2083,
      "storm": 2084,
      "urric": 2085,
      "king": 2086,
      "ral": 2087,
      "ush": 2088,
      "avy": 2089,
      "There": 2090,
      "ref": 2091,
      "ched": 2092,
      "ness": 2093,
      "ston": 2094,
      "City": 2095,
      "ai": 2096,
      "real": 2097,
      "original": 2098,
      "ought": 2099,
      "company": 2100,
      "ler": 2101,
      "bro": 2102,
      "command": 2103,
      "fact": 2104,
      "match": 2105,
      "ences": 2106,
      "fac": 2107,
      "ety": 2108,
      "month": 2109,
      "When": 2110,
      "Or": 2111,
      "itary": 2112,
      "auth": 2113,
      "24": 2114,
      "stit": 2115,
      "trad": 2116,
      "Li": 2117,
      "gram": 2118,
      "aff": 2119,
      "stri": 2120,
      "National": 2121,
      "oung": 2122,
      "Bo": 2123,
      "Ph": 2124,
      "2009": 2125,
      "sk": 2126,
      "club": 2127,
      "video": 2128,
      "ze": 2129,
      "26": 2130,
      "2008": 2131,
      "raft": 2132,
      "2010": 2133,
      "rench": 2134,
      "colle": 2135,
      "21": 2136,
      "church": 2137,
      "tract": 2138,
      "River": 2139,
      "thing": 2140,
      "ides": 2141,
      "ivision": 2142,
      "28": 2143,
      "role": 2144,
      "lim": 2145,
      "mag": 2146,
      "still": 2147,
      "23": 2148,
      "arn": 2149,
      "forman": 2150,
      "move": 2151,
      "ends": 2152,
      "iversity": 2153,
      "player": 2154,
      "possi": 2155,
      "Co": 2156,
      "mp": 2157,
      "ensive": 2158,
      "mid": 2159,
      "local": 2160,
      "Gen": 2161,
      "Pe": 2162,
      "ged": 2163,
      "Indi": 2164,
      "addition": 2165,
      "Dy": 2166,
      "100": 2167,
      "came": 2168,
      "often": 2169,
      "version": 2170,
      "put": 2171,
      "vo": 2172,
      "und": 2173,
      "history": 2174,
      "idge": 2175,
      "aken": 2176,
      "site": 2177,
      "former": 2178,
      "bert": 2179,
      "say": 2180,
      "quar": 2181,
      "half": 2182,
      "draw": 2183,
      "fel": 2184,
      "urricane": 2185,
      "sou": 2186,
      "ggest": 2187,
      "init": 2188,
      "lor": 2189,
      "den": 2190,
      "ending": 2191,
      "continued": 2192,
      "house": 2193,
      "round": 2194,
      "ali": 2195,
      "ution": 2196,
      "body": 2197,
      "considered": 2198,
      "Inter": 2199,
      "inning": 2200,
      "suggest": 2201,
      "next": 2202,
      "2007": 2203,
      "effect": 2204,
      "One": 2205,
      "mand": 2206,
      "ared": 2207,
      "ribut": 2208,
      "refer": 2209,
      "fri": 2210,
      "similar": 2211,
      "placed": 2212,
      "recorded": 2213,
      "English": 2214,
      "published": 2215,
      "French": 2216,
      "import": 2217,
      "few": 2218,
      "career": 2219,
      "wind": 2220,
      "held": 2221,
      "beg": 2222,
      "Batt": 2223,
      "Per": 2224,
      "aster": 2225,
      "Te": 2226,
      "ator": 2227,
      "performan": 2228,
      "take": 2229,
      "chang": 2230,
      "production": 2231,
      "Ear": 2232,
      "ico": 2233,
      "imes": 2234,
      "posed": 2235,
      "graph": 2236,
      "different": 2237,
      "sty": 2238,
      "aining": 2239,
      "commun": 2240,
      "ps": 2241,
      "fort": 2242,
      "bar": 2243,
      "craft": 2244,
      "With": 2245,
      "Bar": 2246,
      "you": 2247,
      "oute": 2248,
      "without": 2249,
      "ampion": 2250,
      "songs": 2251,
      "fr": 2252,
      "written": 2253,
      "27": 2254,
      "action": 2255,
      "polit": 2256,
      "Mus": 2257,
      "force": 2258,
      "eved": 2259,
      "strong": 2260,
      "among": 2261,
      "struct": 2262,
      "wood": 2263,
      "level": 2264,
      "22": 2265,
      "Ser": 2266,
      "gl": 2267,
      "ford": 2268,
      "State": 2269,
      "ik": 2270,
      "seven": 2271,
      "iment": 2272,
      "Tr": 2273,
      "days": 2274,
      "every": 2275,
      "stead": 2276,
      "white": 2277,
      "Char": 2278,
      "ology": 2279,
      "fire": 2280,
      "win": 2281,
      "iter": 2282,
      "itar": 2283,
      "Division": 2284,
      "2011": 2285,
      "larg": 2286,
      "release": 2287,
      "bird": 2288,
      "foot": 2289,
      "tropical": 2290,
      "further": 2291,
      "find": 2292,
      "become": 2293,
      "2006": 2294,
      "According": 2295,
      "Church": 2296,
      "Although": 2297,
      "Canad": 2298,
      "however": 2299,
      "test": 2300,
      "author": 2301,
      "ering": 2302,
      "prof": 2303,
      "cor": 2304,
      "pite": 2305,
      "augh": 2306,
      "respon": 2307,
      "particular": 2308,
      "how": 2309,
      "ox": 2310,
      "wide": 2311,
      "Port": 2312,
      "title": 2313,
      "fan": 2314,
      "tele": 2315,
      "Tw": 2316,
      "hold": 2317,
      "ning": 2318,
      "military": 2319,
      "Mo": 2320,
      "Roman": 2321,
      "members": 2322,
      "League": 2323,
      "popular": 2324,
      "direct": 2325,
      "cial": 2326,
      "cult": 2327,
      "sit": 2328,
      "ives": 2329,
      "ctions": 2330,
      "itch": 2331,
      "omin": 2332,
      "histor": 2333,
      "ittle": 2334,
      "udi": 2335,
      "ided": 2336,
      "ices": 2337,
      "times": 2338,
      "Song": 2339,
      "pen": 2340,
      "bruary": 2341,
      "February": 2342,
      "clear": 2343,
      "Pol": 2344,
      "uc": 2345,
      "indu": 2346,
      "moder": 2347,
      "lost": 2348,
      "scen": 2349,
      "bur": 2350,
      "Geor": 2351,
      "gave": 2352,
      "na": 2353,
      "produced": 2354,
      "successful": 2355,
      "reported": 2356,
      "provid": 2357,
      "Dylan": 2358,
      "Miss": 2359,
      "divid": 2360,
      "served": 2361,
      "Park": 2362,
      "post": 2363,
      "itions": 2364,
      "ama": 2365,
      "night": 2366,
      "total": 2367,
      "Des": 2368,
      "flo": 2369,
      "bas": 2370,
      "search": 2371,
      "sure": 2372,
      "away": 2373,
      "2012": 2374,
      "Old": 2375,
      "ively": 2376,
      "common": 2377,
      "rad": 2378,
      "ney": 2379,
      "Comp": 2380,
      "net": 2381,
      "ister": 2382,
      "decl": 2383,
      "children": 2384,
      "given": 2385,
      "chn": 2386,
      "apan": 2387,
      "Ha": 2388,
      "seen": 2389,
      "forces": 2390,
      "Sim": 2391,
      "fron": 2392,
      "atic": 2393,
      "tour": 2394,
      "ception": 2395,
      "see": 2396,
      "face": 2397,
      "ges": 2398,
      "vict": 2399,
      "stated": 2400,
      "els": 2401,
      "having": 2402,
      "close": 2403,
      "critic": 2404,
      "Japan": 2405,
      "omen": 2406,
      "ably": 2407,
      "ailed": 2408,
      "tro": 2409,
      "stre": 2410,
      "plan": 2411,
      "exp": 2412,
      "include": 2413,
      "29": 2414,
      "To": 2415,
      "invol": 2416,
      "represent": 2417,
      "Count": 2418,
      "gar": 2419,
      "making": 2420,
      "influ": 2421,
      "capt": 2422,
      "Ne": 2423,
      "great": 2424,
      "want": 2425,
      "alion": 2426,
      "eder": 2427,
      "Ma": 2428,
      "Afric": 2429,
      "country": 2430,
      "young": 2431,
      "compet": 2432,
      "ways": 2433,
      "ploy": 2434,
      "cus": 2435,
      "ier": 2436,
      "tell": 2437,
      "manag": 2438,
      "Cent": 2439,
      "look": 2440,
      "signific": 2441,
      "comb": 2442,
      "program": 2443,
      "General": 2444,
      "Har": 2445,
      "ances": 2446,
      "antic": 2447,
      "lands": 2448,
      "novel": 2449,
      "equ": 2450,
      "ours": 2451,
      "2013": 2452,
      "pur": 2453,
      "intro": 2454,
      "control": 2455,
      "40": 2456,
      "fem": 2457,
      "mm": 2458,
      "occur": 2459,
      "scri": 2460,
      "Air": 2461,
      "went": 2462,
      "word": 2463,
      "never": 2464,
      "rent": 2465,
      "Vi": 2466,
      "rap": 2467,
      "omet": 2468,
      "project": 2469,
      "compos": 2470,
      "depend": 2471,
      "BC": 2472,
      "construction": 2473,
      "lished": 2474,
      "should": 2475,
      "board": 2476,
      "change": 2477,
      "raised": 2478,
      "activ": 2479,
      "While": 2480,
      "mix": 2481,
      "Dav": 2482,
      "law": 2483,
      "writing": 2484,
      "Scot": 2485,
      "soci": 2486,
      "xim": 2487,
      "returned": 2488,
      "Su": 2489,
      "father": 2490,
      "ope": 2491,
      "works": 2492,
      "University": 2493,
      "developed": 2494,
      "bor": 2495,
      "chart": 2496,
      "aren": 2497,
      "established": 2498,
      "ks": 2499,
      "sound": 2500,
      "190": 2501,
      "key": 2502,
      "Ed": 2503,
      "dri": 2504,
      "god": 2505,
      "ither": 2506,
      "These": 2507,
      "announ": 2508,
      "America": 2509,
      "room": 2510,
      "population": 2511,
      "Ire": 2512,
      "ner": 2513,
      "ades": 2514,
      "introdu": 2515,
      "Jack": 2516,
      "mit": 2517,
      "coming": 2518,
      "amb": 2519,
      "reached": 2520,
      "Cor": 2521,
      "Ke": 2522,
      "ient": 2523,
      "earli": 2524,
      "range": 2525,
      "noted": 2526,
      "Ireland": 2527,
      "agre": 2528,
      "Black": 2529,
      "igade": 2530,
      "thought": 2531,
      "ument": 2532,
      "building": 2533,
      "across": 2534,
      "typ": 2535,
      "throughout": 2536,
      "ondon": 2537,
      "Mich": 2538,
      "aint": 2539,
      "cell": 2540,
      "human": 2541,
      "London": 2542,
      "hip": 2543,
      "sum": 2544,
      "Ex": 2545,
      "East": 2546,
      "teen": 2547,
      "William": 2548,
      "felt": 2549,
      "good": 2550,
      "ones": 2551,
      "acy": 2552,
      "full": 2553,
      "burn": 2554,
      "ara": 2555,
      "himself": 2556,
      "Reg": 2557,
      "development": 2558,
      "Ber": 2559,
      "black": 2560,
      "medi": 2561,
      "ological": 2562,
      "Wal": 2563,
      "iness": 2564,
      "nd": 2565,
      "performed": 2566,
      "fle": 2567,
      "complete": 2568,
      "suff": 2569,
      "sett": 2570,
      "Australia": 2571,
      "important": 2572,
      "significant": 2573,
      "eight": 2574,
      "lay": 2575,
      "60": 2576,
      "covered": 2577,
      "ivil": 2578,
      "Atl": 2579,
      "miles": 2580,
      "Mag": 2581,
      "ior": 2582,
      "ov": 2583,
      "ung": 2584,
      "live": 2585,
      "Rich": 2586,
      "Sy": 2587,
      "bus": 2588,
      "destroy": 2589,
      "modern": 2590,
      "nu": 2591,
      "ana": 2592,
      "itive": 2593,
      "interest": 2594,
      "television": 2595,
      "Pal": 2596,
      "Roy": 2597,
      "ring": 2598,
      "various": 2599,
      "style": 2600,
      "areas": 2601,
      "prim": 2602,
      "front": 2603,
      "appeared": 2604,
      "rew": 2605,
      "died": 2606,
      "aign": 2607,
      "cing": 2608,
      "cil": 2609,
      "need": 2610,
      "reek": 2611,
      "ogn": 2612,
      "relation": 2613,
      "TV": 2614,
      "ago": 2615,
      "others": 2616,
      "marri": 2617,
      "rock": 2618,
      "events": 2619,
      "does": 2620,
      "ots": 2621,
      "abor": 2622,
      "Road": 2623,
      "aver": 2624,
      "da": 2625,
      "mun": 2626,
      "too": 2627,
      "sex": 2628,
      "techn": 2629,
      "appoint": 2630,
      "started": 2631,
      "idence": 2632,
      "players": 2633,
      "mission": 2634,
      "High": 2635,
      "James": 2636,
      "fig": 2637,
      "omb": 2638,
      "gether": 2639,
      "Po": 2640,
      "ison": 2641,
      "icult": 2642,
      "feet": 2643,
      "reen": 2644,
      "stant": 2645,
      "experi": 2646,
      "ino": 2647,
      "iting": 2648,
      "poem": 2649,
      "ization": 2650,
      "Mont": 2651,
      "Mount": 2652,
      "ible": 2653,
      "nal": 2654,
      "vill": 2655,
      "ination": 2656,
      "performance": 2657,
      "County": 2658,
      "bes": 2659,
      "sl": 2660,
      "caused": 2661,
      "ising": 2662,
      "alth": 2663,
      "pred": 2664,
      "formation": 2665,
      "189": 2666,
      "Ab": 2667,
      "You": 2668,
      "El": 2669,
      "Pa": 2670,
      "ked": 2671,
      "quad": 2672,
      "ife": 2673,
      "mount": 2674,
      "grad": 2675,
      "Ham": 2676,
      "born": 2677,
      "osaur": 2678,
      "coast": 2679,
      "hind": 2680,
      "ality": 2681,
      "created": 2682,
      "Phil": 2683,
      "script": 2684,
      "2004": 2685,
      "ample": 2686,
      "relig": 2687,
      "rul": 2688,
      "entire": 2689,
      "ull": 2690,
      "ability": 2691,
      "2005": 2692,
      "inv": 2693,
      "era": 2694,
      "vert": 2695,
      "political": 2696,
      "So": 2697,
      "far": 2698,
      "van": 2699,
      "mother": 2700,
      "characters": 2701,
      "cir": 2702,
      "theast": 2703,
      "aly": 2704,
      "Sci": 2705,
      "ioned": 2706,
      "lect": 2707,
      "Som": 2708,
      "taken": 2709,
      "fight": 2710,
      "sw": 2711,
      "stone": 2712,
      "battle": 2713,
      "fav": 2714,
      "once": 2715,
      "exist": 2716,
      "Town": 2717,
      "cop": 2718,
      "asing": 2719,
      "uses": 2720,
      "arded": 2721,
      "Care": 2722,
      "Hist": 2723,
      "yard": 2724,
      "anim": 2725,
      "conne": 2726,
      "located": 2727,
      "killed": 2728,
      "ael": 2729,
      "lines": 2730,
      "ues": 2731,
      "ille": 2732,
      "remained": 2733,
      "grow": 2734,
      "uck": 2735,
      "tradition": 2736,
      "rain": 2737,
      "sess": 2738,
      "bet": 2739,
      "debut": 2740,
      "know": 2741,
      "completed": 2742,
      "Music": 2743,
      "Feder": 2744,
      "scored": 2745,
      "ublic": 2746,
      "difficult": 2747,
      "guns": 2748,
      "Kingdom": 2749,
      "har": 2750,
      "tar": 2751,
      "campaign": 2752,
      "announced": 2753,
      "Cup": 2754,
      "host": 2755,
      "ping": 2756,
      "stars": 2757,
      "ape": 2758,
      "meet": 2759,
      "Grand": 2760,
      "Australian": 2761,
      "stat": 2762,
      "peak": 2763,
      "region": 2764,
      "hab": 2765,
      "names": 2766,
      "ories": 2767,
      "bel": 2768,
      "Ang": 2769,
      "Sun": 2770,
      "process": 2771,
      "goal": 2772,
      "Company": 2773,
      "little": 2774,
      "instead": 2775,
      "added": 2776,
      "break": 2777,
      "enced": 2778,
      "member": 2779,
      "elect": 2780,
      "possible": 2781,
      "gin": 2782,
      "studi": 2783,
      "vest": 2784,
      "regular": 2785,
      "pression": 2786,
      "voc": 2787,
      "wife": 2788,
      "island": 2789,
      "least": 2790,
      "followed": 2791,
      "orse": 2792,
      "pair": 2793,
      "together": 2794,
      "aper": 2795,
      "cause": 2796,
      "tre": 2797,
      "originally": 2798,
      "months": 2799,
      "southern": 2800,
      "mot": 2801,
      "mass": 2802,
      "non": 2803,
      "ned": 2804,
      "comment": 2805,
      "Army": 2806,
      "Bra": 2807,
      "Some": 2808,
      "ique": 2809,
      "ky": 2810,
      "loss": 2811,
      "wall": 2812,
      "resident": 2813,
      "associ": 2814,
      "study": 2815,
      "David": 2816,
      "Bill": 2817,
      "fif": 2818,
      "ota": 2819,
      "playing": 2820,
      "cru": 2821,
      "hurricane": 2822,
      "sport": 2823,
      "women": 2824,
      "ened": 2825,
      "France": 2826,
      "Ev": 2827,
      "broad": 2828,
      "got": 2829,
      "reli": 2830,
      "recogn": 2831,
      "consist": 2832,
      "opened": 2833,
      "35": 2834,
      "termin": 2835,
      "eastern": 2836,
      "carri": 2837,
      "ata": 2838,
      "critics": 2839,
      "Champion": 2840,
      "2003": 2841,
      "base": 2842,
      "osp": 2843,
      "Robert": 2844,
      "eventually": 2845,
      "profess": 2846,
      "Love": 2847,
      "ey": 2848,
      "ho": 2849,
      "odes": 2850,
      "estim": 2851,
      "features": 2852,
      "cert": 2853,
      "God": 2854,
      "Min": 2855,
      "don": 2856,
      "mph": 2857,
      "2015": 2858,
      "cret": 2859,
      "SA": 2860,
      "fourth": 2861,
      "Du": 2862,
      "Val": 2863,
      "route": 2864,
      "decided": 2865,
      "birds": 2866,
      "vir": 2867,
      "forced": 2868,
      "clos": 2869,
      "aving": 2870,
      "tempor": 2871,
      "Two": 2872,
      "saw": 2873,
      "accept": 2874,
      "commer": 2875,
      "points": 2876,
      "graphy": 2877,
      "inal": 2878,
      "illa": 2879,
      "lack": 2880,
      "damage": 2881,
      "sold": 2882,
      "ica": 2883,
      "icated": 2884,
      "heavy": 2885,
      "impro": 2886,
      "leading": 2887,
      "azine": 2888,
      "ded": 2889,
      "either": 2890,
      "pat": 2891,
      "current": 2892,
      "Battalion": 2893,
      "Hen": 2894,
      "Mi": 2895,
      "Sw": 2896,
      "separ": 2897,
      "proble": 2898,
      "forms": 2899,
      "rick": 2900,
      "writer": 2901,
      "cup": 2902,
      "nar": 2903,
      "pie": 2904,
      "behind": 2905,
      "finished": 2906,
      "friend": 2907,
      "31": 2908,
      "dou": 2909,
      "ug": 2910,
      "individ": 2911,
      "believed": 2912,
      "Carey": 2913,
      "Mad": 2914,
      "Part": 2915,
      "dle": 2916,
      "special": 2917,
      "liament": 2918,
      "claimed": 2919,
      "vier": 2920,
      "condom": 2921,
      "Mor": 2922,
      "Red": 2923,
      "mater": 2924,
      "ida": 2925,
      "respect": 2926,
      "appearance": 2927,
      "Royal": 2928,
      "igned": 2929,
      "Play": 2930,
      "2nd": 2931,
      "Am": 2932,
      "Med": 2933,
      "sen": 2934,
      "sour": 2935,
      "lled": 2936,
      "fantry": 2937,
      "80": 2938,
      "Mex": 2939,
      "employ": 2940,
      "example": 2941,
      "Stre": 2942,
      "central": 2943,
      "langu": 2944,
      "service": 2945,
      "Day": 2946,
      "yards": 2947,
      "almost": 2948,
      "ington": 2949,
      "aves": 2950,
      "White": 2951,
      "directed": 2952,
      "western": 2953,
      "70": 2954,
      "Game": 2955,
      "case": 2956,
      "lin": 2957,
      "compl": 2958,
      "compan": 2959,
      "via": 2960,
      "European": 2961,
      "ators": 2962,
      "tel": 2963,
      "anti": 2964,
      "mean": 2965,
      "generally": 2966,
      "Federer": 2967,
      "cul": 2968,
      "hon": 2969,
      "towards": 2970,
      "elements": 2971,
      "Act": 2972,
      "heel": 2973,
      "river": 2974,
      "general": 2975,
      "Oli": 2976,
      "cross": 2977,
      "tail": 2978,
      "urb": 2979,
      "term": 2980,
      "concl": 2981,
      "assist": 2982,
      "stry": 2983,
      "lower": 2984,
      "brought": 2985,
      "Brigade": 2986,
      "ready": 2987,
      "weeks": 2988,
      "Wales": 2989,
      "fly": 2990,
      "stage": 2991,
      "ceed": 2992,
      "upon": 2993,
      "spir": 2994,
      "help": 2995,
      "International": 2996,
      "Flor": 2997,
      "San": 2998,
      "inch": 2999
    },
    "merges": [
      [
        "t",
        "h"
      ],
      [
        "i",
        "n"
      ],
      [
        "e",
        "r"
      ],
      [
        "a",
        "n"
      ],
      [
        "th",
        "e"
      ],
      [
        "o",
        "n"
      ],
      [
        "e",
        "d"
      ],
      [
        "r",
        "e"
      ],
      [
        "a",
        "t"
      ],
      [
        "o",
        "r"
      ],
      [
        "e",
        "n"
      ],
      [
        "s",
        "t"
      ],
      [
        "a",
        "l"
      ],
      [
        "a",
        "r"
      ],
      [
        "an",
        "d"
      ],
      [
        "o",
        "f"
      ],
      [
        "a",
        "s"
      ],
      [
        "e",
        "s"
      ],
      [
        "i",
        "s"
      ],
      [
        "in",
        "g"
      ],
      [
        "t",
        "o"
      ],
      [
        "i",
        "t"
      ],
      [
        "o",
        "u"
      ],
      [
        "i",
        "c"
      ],
      [
        "i",
        "on"
      ],
      [
        "h",
        "e"
      ],
      [
        "l",
        "e"
      ],
      [
        "r",
        "o"
      ],
      [
        "a",
        "c"
      ],
      [
        "i",
        "l"
      ],
      [
        "en",
        "t"
      ],
      [
        "a",
        "d"
      ],
      [
        "s",
        "e"
      ],
      [
        "a",
        "m"
      ],
      [
        "o",
        "m"
      ],
      [
        "b",
        "e"
      ],
      [
        "l",
        "y"
      ],
      [
        "c",
        "h"
      ],
      [
        "u",
        "r"
      ],
      [
        "w",
        "as"
      ],
      [
        "f",
        "or"
      ],
      [
        "d",
        "e"
      ],
      [
        "v",
        "e"
      ],
      [
        "T",
        "he"
      ],
      [
        "o",
        "l"
      ],
      [
        "i",
        "r"
      ],
      [
        "i",
        "m"
      ],
      [
        "-",
        "@"
      ],
      [
        "@",
        "-@"
      ],
      [
        "i",
        "g"
      ],
      [
        "v",
        "er"
      ],
      [
        "o",
        "w"
      ],
      [
        "w",
        "h"
      ],
      [
        "u",
        "n"
      ],
      [
        "t",
        "er"
      ],
      [
        "i",
        "th"
      ],
      [
        "a",
        "y"
      ],
      [
        "c",
        "e"
      ],
      [
        "at",
        "ion"
      ],
      [
        "c",
        "on"
      ],
      [
        "th",
        "at"
      ],
      [
        "w",
        "ith"
      ],
      [
        "a",
        "g"
      ],
      [
        "c",
        "t"
      ],
      [
        "i",
        "d"
      ],
      [
        "t",
        "e"
      ],
      [
        "u",
        "s"
      ],
      [
        "b",
        "y"
      ],
      [
        "e",
        "l"
      ],
      [
        "u",
        "l"
      ],
      [
        "r",
        "i"
      ],
      [
        "o",
        "t"
      ],
      [
        "er",
        "e"
      ],
      [
        "a",
        "p"
      ],
      [
        "re",
        "s"
      ],
      [
        "e",
        "t"
      ],
      [
        "1",
        "9"
      ],
      [
        "o",
        "p"
      ],
      [
        "a",
        "in"
      ],
      [
        "c",
        "om"
      ],
      [
        "ro",
        "m"
      ],
      [
        "er",
        "s"
      ],
      [
        "p",
        "l"
      ],
      [
        "u",
        "m"
      ],
      [
        "u",
        "t"
      ],
      [
        "a",
        "b"
      ],
      [
        "ou",
        "n"
      ],
      [
        "al",
        "l"
      ],
      [
        "0",
        "0"
      ],
      [
        "h",
        "is"
      ],
      [
        "m",
        "o"
      ],
      [
        "i",
        "st"
      ],
      [
        "s",
        "u"
      ],
      [
        "a",
        "re"
      ],
      [
        "f",
        "rom"
      ],
      [
        "p",
        "e"
      ],
      [
        "p",
        "ro"
      ],
      [
        "I",
        "n"
      ],
      [
        "s",
        "h"
      ],
      [
        "n",
        "e"
      ],
      [
        "l",
        "i"
      ],
      [
        "t",
        "r"
      ],
      [
        "at",
        "e"
      ],
      [
        "c",
        "l"
      ],
      [
        "o",
        "s"
      ],
      [
        "th",
        "er"
      ],
      [
        "ar",
        "t"
      ],
      [
        "i",
        "es"
      ],
      [
        "e",
        "m"
      ],
      [
        "w",
        "ere"
      ],
      [
        "o",
        "d"
      ],
      [
        "on",
        "g"
      ],
      [
        "ig",
        "h"
      ],
      [
        "e",
        "st"
      ],
      [
        "e",
        "x"
      ],
      [
        "a",
        "k"
      ],
      [
        "o",
        "c"
      ],
      [
        "il",
        "l"
      ],
      [
        "ar",
        "d"
      ],
      [
        "l",
        "d"
      ],
      [
        "ic",
        "h"
      ],
      [
        "a",
        "st"
      ],
      [
        "is",
        "h"
      ],
      [
        "d",
        "i"
      ],
      [
        "b",
        "er"
      ],
      [
        "an",
        "t"
      ],
      [
        "g",
        "h"
      ],
      [
        "it",
        "y"
      ],
      [
        "or",
        "t"
      ],
      [
        "am",
        "e"
      ],
      [
        "at",
        "ed"
      ],
      [
        "p",
        "er"
      ],
      [
        "m",
        "an"
      ],
      [
        "es",
        "s"
      ],
      [
        "i",
        "ve"
      ],
      [
        "q",
        "u"
      ],
      [
        "m",
        "ent"
      ],
      [
        "al",
        "s"
      ],
      [
        "ou",
        "t"
      ],
      [
        "f",
        "e"
      ],
      [
        "ac",
        "k"
      ],
      [
        "en",
        "d"
      ],
      [
        "v",
        "i"
      ],
      [
        "h",
        "ad"
      ],
      [
        "on",
        "e"
      ],
      [
        "e",
        "ar"
      ],
      [
        "t",
        "w"
      ],
      [
        "o",
        "ver"
      ],
      [
        "ou",
        "gh"
      ],
      [
        "ou",
        "r"
      ],
      [
        "h",
        "a"
      ],
      [
        "wh",
        "ich"
      ],
      [
        "or",
        "d"
      ],
      [
        "r",
        "a"
      ],
      [
        "g",
        "e"
      ],
      [
        "oun",
        "d"
      ],
      [
        "n",
        "ot"
      ],
      [
        "in",
        "e"
      ],
      [
        "r",
        "it"
      ],
      [
        "b",
        "ut"
      ],
      [
        "al",
        "ly"
      ],
      [
        "as",
        "s"
      ],
      [
        "g",
        "r"
      ],
      [
        "u",
        "d"
      ],
      [
        "i",
        "f"
      ],
      [
        "i",
        "p"
      ],
      [
        "ac",
        "t"
      ],
      [
        "i",
        "v"
      ],
      [
        "it",
        "s"
      ],
      [
        "C",
        "h"
      ],
      [
        "i",
        "an"
      ],
      [
        "st",
        "r"
      ],
      [
        "igh",
        "t"
      ],
      [
        "ar",
        "y"
      ],
      [
        "h",
        "er"
      ],
      [
        "d",
        "u"
      ],
      [
        "f",
        "ir"
      ],
      [
        "ow",
        "n"
      ],
      [
        "2",
        "00"
      ],
      [
        "a",
        "v"
      ],
      [
        "a",
        "f"
      ],
      [
        "u",
        "p"
      ],
      [
        "ou",
        "s"
      ],
      [
        "p",
        "o"
      ],
      [
        "2",
        "0"
      ],
      [
        "b",
        "l"
      ],
      [
        "o",
        "re"
      ],
      [
        "com",
        "p"
      ],
      [
        "p",
        "ort"
      ],
      [
        "S",
        "t"
      ],
      [
        "l",
        "and"
      ],
      [
        "e",
        "w"
      ],
      [
        "d",
        "er"
      ],
      [
        "e",
        "v"
      ],
      [
        "ac",
        "h"
      ],
      [
        "s",
        "i"
      ],
      [
        "the",
        "ir"
      ],
      [
        "e",
        "p"
      ],
      [
        "ic",
        "al"
      ],
      [
        "fir",
        "st"
      ],
      [
        "w",
        "or"
      ],
      [
        "ou",
        "ld"
      ],
      [
        "ag",
        "e"
      ],
      [
        "i",
        "a"
      ],
      [
        "p",
        "r"
      ],
      [
        "l",
        "l"
      ],
      [
        "b",
        "o"
      ],
      [
        "a",
        "u"
      ],
      [
        "it",
        "ion"
      ],
      [
        "als",
        "o"
      ],
      [
        "t",
        "im"
      ],
      [
        "l",
        "ow"
      ],
      [
        "ct",
        "ion"
      ],
      [
        "p",
        "t"
      ],
      [
        "l",
        "o"
      ],
      [
        "for",
        "m"
      ],
      [
        "at",
        "er"
      ],
      [
        "s",
        "c"
      ],
      [
        "ig",
        "n"
      ],
      [
        "h",
        "as"
      ],
      [
        "s",
        "er"
      ],
      [
        "u",
        "re"
      ],
      [
        "k",
        "e"
      ],
      [
        "at",
        "t"
      ],
      [
        "in",
        "t"
      ],
      [
        "i",
        "al"
      ],
      [
        "re",
        "c"
      ],
      [
        "pl",
        "ay"
      ],
      [
        "ha",
        "ve"
      ],
      [
        "o",
        "ther"
      ],
      [
        "H",
        "e"
      ],
      [
        "1",
        "8"
      ],
      [
        "wh",
        "o"
      ],
      [
        "o",
        "k"
      ],
      [
        "r",
        "an"
      ],
      [
        "om",
        "e"
      ],
      [
        "p",
        "art"
      ],
      [
        "en",
        "ce"
      ],
      [
        "g",
        "u"
      ],
      [
        "be",
        "en"
      ],
      [
        "tw",
        "o"
      ],
      [
        "re",
        "e"
      ],
      [
        "con",
        "t"
      ],
      [
        ".",
        "@"
      ],
      [
        "@",
        ".@"
      ],
      [
        "p",
        "res"
      ],
      [
        "a",
        "w"
      ],
      [
        "ur",
        "ing"
      ],
      [
        "of",
        "f"
      ],
      [
        "d",
        "is"
      ],
      [
        "i",
        "le"
      ],
      [
        "or",
        "y"
      ],
      [
        "th",
        "is"
      ],
      [
        "s",
        "p"
      ],
      [
        "m",
        "e"
      ],
      [
        "I",
        "t"
      ],
      [
        "d",
        "es"
      ],
      [
        "ad",
        "e"
      ],
      [
        "ul",
        "t"
      ],
      [
        "it",
        "e"
      ],
      [
        "p",
        "os"
      ],
      [
        "y",
        "ear"
      ],
      [
        "the",
        "y"
      ],
      [
        "com",
        "m"
      ],
      [
        "20",
        "1"
      ],
      [
        "c",
        "re"
      ],
      [
        "ve",
        "l"
      ],
      [
        "A",
        "n"
      ],
      [
        "el",
        "l"
      ],
      [
        "T",
        "h"
      ],
      [
        "w",
        "e"
      ],
      [
        "af",
        "ter"
      ],
      [
        "an",
        "s"
      ],
      [
        "f",
        "in"
      ],
      [
        "re",
        "n"
      ],
      [
        "c",
        "ent"
      ],
      [
        "o",
        "g"
      ],
      [
        "v",
        "ed"
      ],
      [
        "b",
        "r"
      ],
      [
        "in",
        "cl"
      ],
      [
        "ation",
        "s"
      ],
      [
        "u",
        "e"
      ],
      [
        "ab",
        "le"
      ],
      [
        ",",
        "@"
      ],
      [
        "@",
        ",@"
      ],
      [
        "ic",
        "e"
      ],
      [
        "wor",
        "k"
      ],
      [
        "ur",
        "n"
      ],
      [
        "e",
        "ver"
      ],
      [
        "ac",
        "e"
      ],
      [
        "n",
        "o"
      ],
      [
        "p",
        "re"
      ],
      [
        "r",
        "ic"
      ],
      [
        "ar",
        "k"
      ],
      [
        "m",
        "er"
      ],
      [
        "i",
        "z"
      ],
      [
        "tim",
        "e"
      ],
      [
        "U",
        "n"
      ],
      [
        "f",
        "f"
      ],
      [
        "en",
        "s"
      ],
      [
        "c",
        "o"
      ],
      [
        "s",
        "pe"
      ],
      [
        "an",
        "ce"
      ],
      [
        "in",
        "to"
      ],
      [
        "ion",
        "s"
      ],
      [
        "mo",
        "re"
      ],
      [
        "sh",
        "ip"
      ],
      [
        "an",
        "y"
      ],
      [
        "oun",
        "t"
      ],
      [
        "c",
        "es"
      ],
      [
        "mo",
        "st"
      ],
      [
        "am",
        "p"
      ],
      [
        "a",
        "th"
      ],
      [
        "c",
        "ed"
      ],
      [
        "in",
        "ter"
      ],
      [
        "s",
        "he"
      ],
      [
        "te",
        "m"
      ],
      [
        "r",
        "ed"
      ],
      [
        "as",
        "on"
      ],
      [
        "w",
        "ould"
      ],
      [
        "A",
        "l"
      ],
      [
        "con",
        "d"
      ],
      [
        "h",
        "im"
      ],
      [
        "ol",
        "d"
      ],
      [
        "p",
        "h"
      ],
      [
        "an",
        "n"
      ],
      [
        "us",
        "ed"
      ],
      [
        "m",
        "ain"
      ],
      [
        "an",
        "g"
      ],
      [
        "it",
        "ed"
      ],
      [
        "ct",
        "ed"
      ],
      [
        "i",
        "re"
      ],
      [
        "ing",
        "s"
      ],
      [
        "as",
        "ed"
      ],
      [
        "f",
        "l"
      ],
      [
        "i",
        "e"
      ],
      [
        "f",
        "ore"
      ],
      [
        "be",
        "c"
      ],
      [
        "m",
        "on"
      ],
      [
        "m",
        "in"
      ],
      [
        "incl",
        "ud"
      ],
      [
        "th",
        "ough"
      ],
      [
        "at",
        "es"
      ],
      [
        "ic",
        "t"
      ],
      [
        "A",
        "r"
      ],
      [
        "a",
        "ir"
      ],
      [
        "w",
        "ay"
      ],
      [
        "A",
        "u"
      ],
      [
        "ro",
        "w"
      ],
      [
        "ver",
        "s"
      ],
      [
        "ne",
        "w"
      ],
      [
        "v",
        "is"
      ],
      [
        "a",
        "il"
      ],
      [
        "r",
        "ough"
      ],
      [
        "o",
        "od"
      ],
      [
        "f",
        "t"
      ],
      [
        "ak",
        "e"
      ],
      [
        "b",
        "u"
      ],
      [
        "o",
        "b"
      ],
      [
        "as",
        "e"
      ],
      [
        "r",
        "y"
      ],
      [
        "ic",
        "k"
      ],
      [
        "ent",
        "s"
      ],
      [
        "c",
        "ess"
      ],
      [
        "s",
        "ong"
      ],
      [
        "il",
        "d"
      ],
      [
        "on",
        "ly"
      ],
      [
        "wh",
        "en"
      ],
      [
        "ar",
        "ch"
      ],
      [
        "g",
        "an"
      ],
      [
        "un",
        "der"
      ],
      [
        "u",
        "bl"
      ],
      [
        "re",
        "g"
      ],
      [
        "b",
        "le"
      ],
      [
        "the",
        "m"
      ],
      [
        "is",
        "s"
      ],
      [
        "or",
        "s"
      ],
      [
        "l",
        "es"
      ],
      [
        "c",
        "ol"
      ],
      [
        "o",
        "se"
      ],
      [
        "E",
        "n"
      ],
      [
        "d",
        "uring"
      ],
      [
        "d",
        "ay"
      ],
      [
        "in",
        "d"
      ],
      [
        "k",
        "n"
      ],
      [
        "re",
        "t"
      ],
      [
        "g",
        "ame"
      ],
      [
        "s",
        "on"
      ],
      [
        "er",
        "ed"
      ],
      [
        "R",
        "e"
      ],
      [
        "il",
        "m"
      ],
      [
        "w",
        "ard"
      ],
      [
        "e",
        "en"
      ],
      [
        "g",
        "en"
      ],
      [
        "r",
        "u"
      ],
      [
        "c",
        "an"
      ],
      [
        "ol",
        "low"
      ],
      [
        "ou",
        "th"
      ],
      [
        "ab",
        "out"
      ],
      [
        "i",
        "de"
      ],
      [
        "19",
        "9"
      ],
      [
        "t",
        "s"
      ],
      [
        "se",
        "ason"
      ],
      [
        "th",
        "an"
      ],
      [
        "n",
        "or"
      ],
      [
        "t",
        "en"
      ],
      [
        "l",
        "ar"
      ],
      [
        "o",
        "y"
      ],
      [
        "s",
        "ome"
      ],
      [
        "er",
        "n"
      ],
      [
        "w",
        "rit"
      ],
      [
        "s",
        "y"
      ],
      [
        "ch",
        "ar"
      ],
      [
        "wh",
        "ile"
      ],
      [
        "ag",
        "ain"
      ],
      [
        "th",
        "ree"
      ],
      [
        "str",
        "u"
      ],
      [
        "ation",
        "al"
      ],
      [
        "ul",
        "ar"
      ],
      [
        "C",
        "om"
      ],
      [
        "t",
        "y"
      ],
      [
        "O",
        "n"
      ],
      [
        "s",
        "o"
      ],
      [
        "f",
        "ul"
      ],
      [
        "W",
        "h"
      ],
      [
        "tw",
        "een"
      ],
      [
        "be",
        "tween"
      ],
      [
        "n",
        "um"
      ],
      [
        "pro",
        "du"
      ],
      [
        "rec",
        "ord"
      ],
      [
        "r",
        "on"
      ],
      [
        "th",
        "rough"
      ],
      [
        "t",
        "ed"
      ],
      [
        "at",
        "ing"
      ],
      [
        "wh",
        "ere"
      ],
      [
        "A",
        "s"
      ],
      [
        "i",
        "ed"
      ],
      [
        "l",
        "ater"
      ],
      [
        "1",
        "0"
      ],
      [
        "re",
        "le"
      ],
      [
        "spe",
        "c"
      ],
      [
        "vi",
        "ew"
      ],
      [
        "am",
        "es"
      ],
      [
        "f",
        "ilm"
      ],
      [
        "t",
        "on"
      ],
      [
        "con",
        "s"
      ],
      [
        "e",
        "le"
      ],
      [
        "e",
        "f"
      ],
      [
        "re",
        "l"
      ],
      [
        "c",
        "k"
      ],
      [
        "A",
        "f"
      ],
      [
        "u",
        "st"
      ],
      [
        "ish",
        "ed"
      ],
      [
        "se",
        "t"
      ],
      [
        "m",
        "ade"
      ],
      [
        "L",
        "e"
      ],
      [
        "su",
        "b"
      ],
      [
        "ur",
        "y"
      ],
      [
        "m",
        "y"
      ],
      [
        "the",
        "n"
      ],
      [
        "N",
        "ew"
      ],
      [
        "l",
        "ed"
      ],
      [
        "d",
        "o"
      ],
      [
        "a",
        "id"
      ],
      [
        "mer",
        "ic"
      ],
      [
        "A",
        "meric"
      ],
      [
        "b",
        "um"
      ],
      [
        "oc",
        "k"
      ],
      [
        "in",
        "s"
      ],
      [
        "se",
        "l"
      ],
      [
        "m",
        "a"
      ],
      [
        "ap",
        "pe"
      ],
      [
        "s",
        "ing"
      ],
      [
        "00",
        "0"
      ],
      [
        "J",
        "o"
      ],
      [
        "f",
        "ollow"
      ],
      [
        "g",
        "o"
      ],
      [
        "ter",
        "s"
      ],
      [
        "h",
        "igh"
      ],
      [
        ".",
        "."
      ],
      [
        "se",
        "cond"
      ],
      [
        "su",
        "ch"
      ],
      [
        "ro",
        "p"
      ],
      [
        "v",
        "ing"
      ],
      [
        "f",
        "our"
      ],
      [
        "c",
        "ap"
      ],
      [
        "ar",
        "i"
      ],
      [
        "p",
        "ubl"
      ],
      [
        "j",
        "e"
      ],
      [
        "ic",
        "s"
      ],
      [
        "1",
        "6"
      ],
      [
        "m",
        "ed"
      ],
      [
        "w",
        "ell"
      ],
      [
        "i",
        "el"
      ],
      [
        "b",
        "ack"
      ],
      [
        "A",
        "t"
      ],
      [
        "m",
        "us"
      ],
      [
        "D",
        "e"
      ],
      [
        "il",
        "y"
      ],
      [
        "T",
        "his"
      ],
      [
        "u",
        "al"
      ],
      [
        "if",
        "ic"
      ],
      [
        "c",
        "all"
      ],
      [
        "v",
        "en"
      ],
      [
        "al",
        "bum"
      ],
      [
        "be",
        "fore"
      ],
      [
        "m",
        "i"
      ],
      [
        "c",
        "ri"
      ],
      [
        "c",
        "ur"
      ],
      [
        "f",
        "er"
      ],
      [
        "he",
        "l"
      ],
      [
        "ur",
        "ch"
      ],
      [
        "ar",
        "s"
      ],
      [
        "su",
        "p"
      ],
      [
        "f",
        "ound"
      ],
      [
        "1",
        "2"
      ],
      [
        "En",
        "g"
      ],
      [
        "be",
        "ing"
      ],
      [
        "N",
        "o"
      ],
      [
        "u",
        "b"
      ],
      [
        "th",
        "ere"
      ],
      [
        "year",
        "s"
      ],
      [
        "at",
        "ive"
      ],
      [
        "s",
        "ur"
      ],
      [
        "1",
        "5"
      ],
      [
        "ar",
        "ri"
      ],
      [
        "in",
        "n"
      ],
      [
        "ow",
        "ever"
      ],
      [
        "p",
        "ar"
      ],
      [
        "u",
        "se"
      ],
      [
        "al",
        "e"
      ],
      [
        "1",
        "7"
      ],
      [
        "an",
        "e"
      ],
      [
        "ad",
        "d"
      ],
      [
        "man",
        "y"
      ],
      [
        "kn",
        "own"
      ],
      [
        "si",
        "de"
      ],
      [
        "l",
        "ong"
      ],
      [
        "li",
        "ke"
      ],
      [
        "num",
        "ber"
      ],
      [
        "l",
        "oc"
      ],
      [
        "a",
        "ve"
      ],
      [
        "N",
        "or"
      ],
      [
        "po",
        "int"
      ],
      [
        "ir",
        "d"
      ],
      [
        "it",
        "ies"
      ],
      [
        "ro",
        "s"
      ],
      [
        "ser",
        "ies"
      ],
      [
        "vel",
        "op"
      ],
      [
        "ol",
        "og"
      ],
      [
        "au",
        "se"
      ],
      [
        "re",
        "at"
      ],
      [
        "m",
        "ber"
      ],
      [
        "in",
        "ce"
      ],
      [
        "un",
        "t"
      ],
      [
        "or",
        "n"
      ],
      [
        "ce",
        "pt"
      ],
      [
        "l",
        "ine"
      ],
      [
        "C",
        "on"
      ],
      [
        "in",
        "es"
      ],
      [
        "ch",
        "o"
      ],
      [
        "bo",
        "th"
      ],
      [
        "se",
        "ver"
      ],
      [
        "en",
        "g"
      ],
      [
        "h",
        "n"
      ],
      [
        "p",
        "op"
      ],
      [
        "di",
        "re"
      ],
      [
        "is",
        "e"
      ],
      [
        "B",
        "rit"
      ],
      [
        "ep",
        "is"
      ],
      [
        "ment",
        "s"
      ],
      [
        "includ",
        "ing"
      ],
      [
        "at",
        "ch"
      ],
      [
        "d",
        "own"
      ],
      [
        "ig",
        "in"
      ],
      [
        "again",
        "st"
      ],
      [
        "o",
        "de"
      ],
      [
        "bec",
        "ame"
      ],
      [
        "u",
        "ary"
      ],
      [
        "ou",
        "p"
      ],
      [
        "char",
        "ac"
      ],
      [
        "S",
        "h"
      ],
      [
        "res",
        "s"
      ],
      [
        "I",
        "I"
      ],
      [
        "fe",
        "at"
      ],
      [
        "id",
        "ent"
      ],
      [
        "c",
        "i"
      ],
      [
        "19",
        "8"
      ],
      [
        "c",
        "er"
      ],
      [
        "e",
        "k"
      ],
      [
        "on",
        "d"
      ],
      [
        "t",
        "ain"
      ],
      [
        "iel",
        "d"
      ],
      [
        "3",
        "0"
      ],
      [
        "B",
        "e"
      ],
      [
        "p",
        "ed"
      ],
      [
        "des",
        "cri"
      ],
      [
        "R",
        "o"
      ],
      [
        "appe",
        "ar"
      ],
      [
        "o",
        "st"
      ],
      [
        "Un",
        "ited"
      ],
      [
        "is",
        "ed"
      ],
      [
        "c",
        "le"
      ],
      [
        "te",
        "am"
      ],
      [
        "Jo",
        "hn"
      ],
      [
        "de",
        "c"
      ],
      [
        "u",
        "res"
      ],
      [
        "h",
        "y"
      ],
      [
        "r",
        "un"
      ],
      [
        "su",
        "c"
      ],
      [
        "b",
        "ed"
      ],
      [
        "de",
        "velop"
      ],
      [
        "per",
        "i"
      ],
      [
        "cent",
        "ury"
      ],
      [
        "sh",
        "ow"
      ],
      [
        "Af",
        "ter"
      ],
      [
        "h",
        "ist"
      ],
      [
        "le",
        "ad"
      ],
      [
        "m",
        "em"
      ],
      [
        "cont",
        "in"
      ],
      [
        "u",
        "ch"
      ],
      [
        "st",
        "or"
      ],
      [
        "tr",
        "ans"
      ],
      [
        "or",
        "igin"
      ],
      [
        "he",
        "ad"
      ],
      [
        "l",
        "an"
      ],
      [
        "m",
        "ill"
      ],
      [
        "p",
        "ol"
      ],
      [
        "19",
        "4"
      ],
      [
        "le",
        "t"
      ],
      [
        "st",
        "e"
      ],
      [
        "op",
        "er"
      ],
      [
        "w",
        "est"
      ],
      [
        "le",
        "y"
      ],
      [
        "d",
        "am"
      ],
      [
        "b",
        "all"
      ],
      [
        "v",
        "es"
      ],
      [
        "ro",
        "ad"
      ],
      [
        "s",
        "ign"
      ],
      [
        "s",
        "m"
      ],
      [
        "sever",
        "al"
      ],
      [
        "di",
        "ff"
      ],
      [
        "m",
        "ay"
      ],
      [
        "be",
        "gan"
      ],
      [
        "19",
        "6"
      ],
      [
        "u",
        "ally"
      ],
      [
        "S",
        "he"
      ],
      [
        "er",
        "al"
      ],
      [
        "19",
        "7"
      ],
      [
        "B",
        "r"
      ],
      [
        "un",
        "e"
      ],
      [
        "je",
        "ct"
      ],
      [
        "re",
        "main"
      ],
      [
        "c",
        "ord"
      ],
      [
        "S",
        "e"
      ],
      [
        "ne",
        "ar"
      ],
      [
        "ear",
        "ly"
      ],
      [
        "pres",
        "ent"
      ],
      [
        "w",
        "ar"
      ],
      [
        "c",
        "rit"
      ],
      [
        "m",
        "et"
      ],
      [
        "n",
        "am"
      ],
      [
        "c",
        "over"
      ],
      [
        "end",
        "ed"
      ],
      [
        "a",
        "z"
      ],
      [
        "c",
        "y"
      ],
      [
        "c",
        "ould"
      ],
      [
        "d",
        "id"
      ],
      [
        "M",
        "ar"
      ],
      [
        "m",
        "s"
      ],
      [
        "call",
        "ed"
      ],
      [
        "tr",
        "y"
      ],
      [
        "W",
        "or"
      ],
      [
        "epis",
        "ode"
      ],
      [
        "i",
        "o"
      ],
      [
        "le",
        "g"
      ],
      [
        "p",
        "or"
      ],
      [
        "de",
        "p"
      ],
      [
        "op",
        "le"
      ],
      [
        "sel",
        "f"
      ],
      [
        "F",
        "or"
      ],
      [
        "i",
        "b"
      ],
      [
        "re",
        "ce"
      ],
      [
        "al",
        "ong"
      ],
      [
        "ak",
        "ing"
      ],
      [
        "v",
        "id"
      ],
      [
        "lar",
        "ge"
      ],
      [
        "as",
        "h"
      ],
      [
        "I",
        "s"
      ],
      [
        "d",
        "ist"
      ],
      [
        "g",
        "g"
      ],
      [
        "v",
        "al"
      ],
      [
        "1",
        "3"
      ],
      [
        "m",
        "il"
      ],
      [
        "M",
        "ay"
      ],
      [
        "p",
        "ass"
      ],
      [
        "s",
        "aid"
      ],
      [
        "Americ",
        "an"
      ],
      [
        "in",
        "k"
      ],
      [
        "es",
        "e"
      ],
      [
        "pres",
        "s"
      ],
      [
        "gu",
        "st"
      ],
      [
        "ers",
        "on"
      ],
      [
        "suc",
        "cess"
      ],
      [
        "to",
        "w"
      ],
      [
        "the",
        "se"
      ],
      [
        "iz",
        "ed"
      ],
      [
        "n",
        "ow"
      ],
      [
        "op",
        "en"
      ],
      [
        "gr",
        "ap"
      ],
      [
        "1",
        "4"
      ],
      [
        "c",
        "a"
      ],
      [
        "t",
        "ri"
      ],
      [
        "G",
        "er"
      ],
      [
        "st",
        "em"
      ],
      [
        "f",
        "am"
      ],
      [
        "ri",
        "st"
      ],
      [
        "Brit",
        "ish"
      ],
      [
        "5",
        "0"
      ],
      [
        "mus",
        "ic"
      ],
      [
        "unt",
        "il"
      ],
      [
        "c",
        "ity"
      ],
      [
        "st",
        "art"
      ],
      [
        "over",
        "n"
      ],
      [
        "ros",
        "s"
      ],
      [
        "comp",
        "le"
      ],
      [
        "rele",
        "ased"
      ],
      [
        "x",
        "t"
      ],
      [
        "G",
        "r"
      ],
      [
        "l",
        "ess"
      ],
      [
        "it",
        "t"
      ],
      [
        "s",
        "ame"
      ],
      [
        "ther",
        "n"
      ],
      [
        "iv",
        "ed"
      ],
      [
        "v",
        "ol"
      ],
      [
        "ist",
        "s"
      ],
      [
        "a",
        "h"
      ],
      [
        "s",
        "im"
      ],
      [
        "j",
        "or"
      ],
      [
        "ret",
        "urn"
      ],
      [
        "pl",
        "ac"
      ],
      [
        "i",
        "ous"
      ],
      [
        "k",
        "m"
      ],
      [
        "The",
        "y"
      ],
      [
        "st",
        "ate"
      ],
      [
        "an",
        "k"
      ],
      [
        "are",
        "a"
      ],
      [
        "des",
        "ign"
      ],
      [
        "re",
        "ad"
      ],
      [
        "oc",
        "i"
      ],
      [
        "mill",
        "ion"
      ],
      [
        "ou",
        "se"
      ],
      [
        "fe",
        "ct"
      ],
      [
        "form",
        "ed"
      ],
      [
        "m",
        "en"
      ],
      [
        "bec",
        "ause"
      ],
      [
        "o",
        "ot"
      ],
      [
        "ow",
        "er"
      ],
      [
        "e",
        "ach"
      ],
      [
        "W",
        "ar"
      ],
      [
        "off",
        "ic"
      ],
      [
        "C",
        "ar"
      ],
      [
        "c",
        "he"
      ],
      [
        "en",
        "n"
      ],
      [
        "Au",
        "gust"
      ],
      [
        "l",
        "a"
      ],
      [
        "c",
        "oun"
      ],
      [
        "vi",
        "de"
      ],
      [
        "com",
        "e"
      ],
      [
        "S",
        "ep"
      ],
      [
        "ser",
        "v"
      ],
      [
        "d",
        "r"
      ],
      [
        "li",
        "fe"
      ],
      [
        "e",
        "ast"
      ],
      [
        "pe",
        "ople"
      ],
      [
        "cho",
        "ol"
      ],
      [
        "p",
        "le"
      ],
      [
        "c",
        "ar"
      ],
      [
        "n",
        "ational"
      ],
      [
        "bo",
        "ok"
      ],
      [
        "r",
        "is"
      ],
      [
        "b",
        "od"
      ],
      [
        "ro",
        "te"
      ],
      [
        "str",
        "al"
      ],
      [
        "l",
        "ight"
      ],
      [
        "si",
        "x"
      ],
      [
        "E",
        "u"
      ],
      [
        "sup",
        "port"
      ],
      [
        "f",
        "ield"
      ],
      [
        "J",
        "u"
      ],
      [
        "C",
        "ol"
      ],
      [
        "a",
        "ther"
      ],
      [
        "gr",
        "oup"
      ],
      [
        "i",
        "ver"
      ],
      [
        "ar",
        "ound"
      ],
      [
        "to",
        "p"
      ],
      [
        "ur",
        "ed"
      ],
      [
        "F",
        "e"
      ],
      [
        "is",
        "ion"
      ],
      [
        "H",
        "owever"
      ],
      [
        "P",
        "l"
      ],
      [
        "v",
        "ent"
      ],
      [
        "d",
        "om"
      ],
      [
        "s",
        "ol"
      ],
      [
        "m",
        "ark"
      ],
      [
        "pro",
        "te"
      ],
      [
        "nor",
        "th"
      ],
      [
        "cons",
        "id"
      ],
      [
        "charac",
        "ter"
      ],
      [
        "att",
        "ack"
      ],
      [
        "al",
        "es"
      ],
      [
        "tem",
        "ber"
      ],
      [
        "Sep",
        "tember"
      ],
      [
        "w",
        "ill"
      ],
      [
        "contin",
        "u"
      ],
      [
        "sm",
        "all"
      ],
      [
        "g",
        "et"
      ],
      [
        "ex",
        "t"
      ],
      [
        "B",
        "l"
      ],
      [
        "pos",
        "ition"
      ],
      [
        "re",
        "st"
      ],
      [
        "follow",
        "ing"
      ],
      [
        "gr",
        "ound"
      ],
      [
        "Wor",
        "ld"
      ],
      [
        "o",
        "th"
      ],
      [
        "U",
        "S"
      ],
      [
        "f",
        "un"
      ],
      [
        "st",
        "ud"
      ],
      [
        "cont",
        "ro"
      ],
      [
        "Au",
        "stral"
      ],
      [
        "ver",
        "y"
      ],
      [
        "in",
        "a"
      ],
      [
        "l",
        "ish"
      ],
      [
        "re",
        "qu"
      ],
      [
        "H",
        "er"
      ],
      [
        "i",
        "vers"
      ],
      [
        "ur",
        "al"
      ],
      [
        "f",
        "ive"
      ],
      [
        "st",
        "and"
      ],
      [
        "ion",
        "al"
      ],
      [
        "res",
        "ult"
      ],
      [
        "a",
        "im"
      ],
      [
        "t",
        "it"
      ],
      [
        "b",
        "ers"
      ],
      [
        "at",
        "ter"
      ],
      [
        "tr",
        "ack"
      ],
      [
        "g",
        "y"
      ],
      [
        "ag",
        "ue"
      ],
      [
        "ct",
        "or"
      ],
      [
        "m",
        "iss"
      ],
      [
        "p",
        "on"
      ],
      [
        "de",
        "f"
      ],
      [
        "wh",
        "at"
      ],
      [
        "n",
        "ame"
      ],
      [
        "cord",
        "ing"
      ],
      [
        "1",
        "1"
      ],
      [
        "b",
        "re"
      ],
      [
        "ag",
        "ed"
      ],
      [
        "Nor",
        "th"
      ],
      [
        "G",
        "u"
      ],
      [
        "M",
        "e"
      ],
      [
        "F",
        "ran"
      ],
      [
        "re",
        "port"
      ],
      [
        "g",
        "un"
      ],
      [
        "ir",
        "ed"
      ],
      [
        "is",
        "m"
      ],
      [
        "W",
        "il"
      ],
      [
        "c",
        "r"
      ],
      [
        "c",
        "ut"
      ],
      [
        "on",
        "y"
      ],
      [
        "p",
        "rom"
      ],
      [
        "play",
        "ed"
      ],
      [
        "J",
        "une"
      ],
      [
        "all",
        "ow"
      ],
      [
        "c",
        "our"
      ],
      [
        "t",
        "al"
      ],
      [
        "we",
        "ek"
      ],
      [
        "g",
        "overn"
      ],
      [
        "l",
        "ate"
      ],
      [
        "as",
        "k"
      ],
      [
        "ag",
        "es"
      ],
      [
        "om",
        "an"
      ],
      [
        "0",
        "s"
      ],
      [
        "h",
        "am"
      ],
      [
        "O",
        "c"
      ],
      [
        "c",
        "are"
      ],
      [
        "y",
        "s"
      ],
      [
        "vis",
        "ion"
      ],
      [
        "c",
        "ast"
      ],
      [
        "M",
        "an"
      ],
      [
        "2",
        "5"
      ],
      [
        "J",
        "an"
      ],
      [
        "d",
        "ra"
      ],
      [
        "fin",
        "al"
      ],
      [
        "publ",
        "ic"
      ],
      [
        "ate",
        "ly"
      ],
      [
        "s",
        "ince"
      ],
      [
        "St",
        "ates"
      ],
      [
        "A",
        "c"
      ],
      [
        "C",
        "l"
      ],
      [
        "im",
        "e"
      ],
      [
        "spec",
        "ies"
      ],
      [
        "ma",
        "jor"
      ],
      [
        "in",
        "ed"
      ],
      [
        "re",
        "ach"
      ],
      [
        "c",
        "ount"
      ],
      [
        "l",
        "ing"
      ],
      [
        "ain",
        "ed"
      ],
      [
        "s",
        "outh"
      ],
      [
        "rece",
        "ived"
      ],
      [
        "M",
        "on"
      ],
      [
        "S",
        "outh"
      ],
      [
        "ch",
        "ild"
      ],
      [
        "ap",
        "p"
      ],
      [
        "ev",
        "en"
      ],
      [
        "bu",
        "ild"
      ],
      [
        "l",
        "ist"
      ],
      [
        "l",
        "ast"
      ],
      [
        "to",
        "ok"
      ],
      [
        "ap",
        "pro"
      ],
      [
        "cl",
        "ass"
      ],
      [
        "part",
        "ic"
      ],
      [
        "b",
        "att"
      ],
      [
        "w",
        "on"
      ],
      [
        "il",
        "ity"
      ],
      [
        "Ch",
        "rist"
      ],
      [
        "j",
        "ust"
      ],
      [
        "st",
        "ar"
      ],
      [
        "sy",
        "stem"
      ],
      [
        "K",
        "ing"
      ],
      [
        "g",
        "re"
      ],
      [
        "or",
        "gan"
      ],
      [
        "or",
        "k"
      ],
      [
        "ward",
        "s"
      ],
      [
        "os",
        "s"
      ],
      [
        "v",
        "ari"
      ],
      [
        "il",
        "t"
      ],
      [
        "descri",
        "bed"
      ],
      [
        "P",
        "ar"
      ],
      [
        "in",
        "c"
      ],
      [
        "ain",
        "s"
      ],
      [
        "wor",
        "ld"
      ],
      [
        "nam",
        "ed"
      ],
      [
        "tow",
        "n"
      ],
      [
        "pl",
        "ace"
      ],
      [
        "g",
        "iv"
      ],
      [
        "ard",
        "s"
      ],
      [
        "to",
        "ber"
      ],
      [
        "Oc",
        "tober"
      ],
      [
        "b",
        "and"
      ],
      [
        "mo",
        "ved"
      ],
      [
        "A",
        "ll"
      ],
      [
        "p",
        "ri"
      ],
      [
        "er",
        "y"
      ],
      [
        "con",
        "stru"
      ],
      [
        "li",
        "am"
      ],
      [
        "u",
        "te"
      ],
      [
        "w",
        "ater"
      ],
      [
        "in",
        "cre"
      ],
      [
        "u",
        "de"
      ],
      [
        "vi",
        "ous"
      ],
      [
        "rop",
        "ical"
      ],
      [
        "a",
        "ur"
      ],
      [
        "ant",
        "s"
      ],
      [
        "et",
        "s"
      ],
      [
        "k",
        "ill"
      ],
      [
        "..",
        "."
      ],
      [
        "se",
        "qu"
      ],
      [
        "w",
        "rote"
      ],
      [
        "Y",
        "ork"
      ],
      [
        "Ju",
        "ly"
      ],
      [
        "c",
        "amp"
      ],
      [
        "h",
        "and"
      ],
      [
        "C",
        "an"
      ],
      [
        "i",
        "x"
      ],
      [
        "du",
        "e"
      ],
      [
        "W",
        "est"
      ],
      [
        "at",
        "s"
      ],
      [
        "or",
        "ed"
      ],
      [
        "a",
        "e"
      ],
      [
        "row",
        "n"
      ],
      [
        "i",
        "um"
      ],
      [
        "D",
        "uring"
      ],
      [
        "m",
        "uch"
      ],
      [
        "f",
        "ur"
      ],
      [
        "p",
        "ower"
      ],
      [
        "sing",
        "le"
      ],
      [
        "A",
        "pr"
      ],
      [
        "Apr",
        "il"
      ],
      [
        "ent",
        "ly"
      ],
      [
        "on",
        "s"
      ],
      [
        "at",
        "ure"
      ],
      [
        "tem",
        "pt"
      ],
      [
        "h",
        "um"
      ],
      [
        "ic",
        "ally"
      ],
      [
        "diff",
        "er"
      ],
      [
        "de",
        "ath"
      ],
      [
        "Eu",
        "ro"
      ],
      [
        "it",
        "al"
      ],
      [
        "ord",
        "er"
      ],
      [
        "h",
        "al"
      ],
      [
        "o",
        "ve"
      ],
      [
        "M",
        "c"
      ],
      [
        "tr",
        "a"
      ],
      [
        "gen",
        "er"
      ],
      [
        "Ger",
        "man"
      ],
      [
        "an",
        "other"
      ],
      [
        "19",
        "5"
      ],
      [
        "ship",
        "s"
      ],
      [
        "sh",
        "ort"
      ],
      [
        "includ",
        "ed"
      ],
      [
        "S",
        "c"
      ],
      [
        "ar",
        "m"
      ],
      [
        "em",
        "ent"
      ],
      [
        "ev",
        "ent"
      ],
      [
        "S",
        "te"
      ],
      [
        "p",
        "erson"
      ],
      [
        "r",
        "ight"
      ],
      [
        "Jan",
        "uary"
      ],
      [
        "est",
        "ab"
      ],
      [
        "ak",
        "es"
      ],
      [
        "with",
        "in"
      ],
      [
        "Eng",
        "land"
      ],
      [
        "pe",
        "ct"
      ],
      [
        "ian",
        "s"
      ],
      [
        "s",
        "ent"
      ],
      [
        "le",
        "ft"
      ],
      [
        "b",
        "ased"
      ],
      [
        "c",
        "as"
      ],
      [
        "bu",
        "ilt"
      ],
      [
        "f",
        "all"
      ],
      [
        "be",
        "li"
      ],
      [
        "cl",
        "aim"
      ],
      [
        "al",
        "though"
      ],
      [
        "at",
        "tempt"
      ],
      [
        "if",
        "ied"
      ],
      [
        "fam",
        "ily"
      ],
      [
        "G",
        "e"
      ],
      [
        "M",
        "arch"
      ],
      [
        "h",
        "ome"
      ],
      [
        "g",
        "ames"
      ],
      [
        "th",
        "ird"
      ],
      [
        "en",
        "se"
      ],
      [
        "qu",
        "e"
      ],
      [
        "j",
        "o"
      ],
      [
        "t",
        "urn"
      ],
      [
        "be",
        "st"
      ],
      [
        "de",
        "st"
      ],
      [
        "No",
        "ve"
      ],
      [
        "s",
        "chool"
      ],
      [
        "pre",
        "vious"
      ],
      [
        "t",
        "ing"
      ],
      [
        "ro",
        "y"
      ],
      [
        "a",
        "x"
      ],
      [
        "st",
        "ory"
      ],
      [
        "ul",
        "ation"
      ],
      [
        "19",
        "3"
      ],
      [
        "ex",
        "pl"
      ],
      [
        "Nove",
        "mber"
      ],
      [
        "re",
        "view"
      ],
      [
        "il",
        "ar"
      ],
      [
        "An",
        "d"
      ],
      [
        "i",
        "ally"
      ],
      [
        "is",
        "su"
      ],
      [
        "peri",
        "od"
      ],
      [
        "H",
        "is"
      ],
      [
        "B",
        "y"
      ],
      [
        "op",
        "s"
      ],
      [
        "fl",
        "u"
      ],
      [
        "govern",
        "ment"
      ],
      [
        "Euro",
        "pe"
      ],
      [
        "st",
        "er"
      ],
      [
        "P",
        "r"
      ],
      [
        "S",
        "p"
      ],
      [
        "ad",
        "v"
      ],
      [
        "ch",
        "an"
      ],
      [
        "m",
        "ar"
      ],
      [
        "l",
        "s"
      ],
      [
        "De",
        "ce"
      ],
      [
        "m",
        "ake"
      ],
      [
        "A",
        "d"
      ],
      [
        "m",
        "b"
      ],
      [
        "us",
        "ing"
      ],
      [
        "Dece",
        "mber"
      ],
      [
        "th",
        "ose"
      ],
      [
        "P",
        "ro"
      ],
      [
        "W",
        "e"
      ],
      [
        "stor",
        "m"
      ],
      [
        "ur",
        "ric"
      ],
      [
        "k",
        "ing"
      ],
      [
        "r",
        "al"
      ],
      [
        "us",
        "h"
      ],
      [
        "av",
        "y"
      ],
      [
        "Th",
        "ere"
      ],
      [
        "re",
        "f"
      ],
      [
        "ch",
        "ed"
      ],
      [
        "n",
        "ess"
      ],
      [
        "st",
        "on"
      ],
      [
        "C",
        "ity"
      ],
      [
        "a",
        "i"
      ],
      [
        "re",
        "al"
      ],
      [
        "origin",
        "al"
      ],
      [
        "ough",
        "t"
      ],
      [
        "comp",
        "any"
      ],
      [
        "l",
        "er"
      ],
      [
        "b",
        "ro"
      ],
      [
        "comm",
        "and"
      ],
      [
        "f",
        "act"
      ],
      [
        "m",
        "atch"
      ],
      [
        "en",
        "ces"
      ],
      [
        "f",
        "ac"
      ],
      [
        "et",
        "y"
      ],
      [
        "mon",
        "th"
      ],
      [
        "Wh",
        "en"
      ],
      [
        "O",
        "r"
      ],
      [
        "it",
        "ary"
      ],
      [
        "au",
        "th"
      ],
      [
        "2",
        "4"
      ],
      [
        "st",
        "it"
      ],
      [
        "tr",
        "ad"
      ],
      [
        "L",
        "i"
      ],
      [
        "gr",
        "am"
      ],
      [
        "af",
        "f"
      ],
      [
        "st",
        "ri"
      ],
      [
        "N",
        "ational"
      ],
      [
        "oun",
        "g"
      ],
      [
        "B",
        "o"
      ],
      [
        "P",
        "h"
      ],
      [
        "200",
        "9"
      ],
      [
        "s",
        "k"
      ],
      [
        "cl",
        "ub"
      ],
      [
        "vide",
        "o"
      ],
      [
        "z",
        "e"
      ],
      [
        "2",
        "6"
      ],
      [
        "200",
        "8"
      ],
      [
        "ra",
        "ft"
      ],
      [
        "201",
        "0"
      ],
      [
        "ren",
        "ch"
      ],
      [
        "col",
        "le"
      ],
      [
        "2",
        "1"
      ],
      [
        "ch",
        "urch"
      ],
      [
        "tr",
        "act"
      ],
      [
        "R",
        "iver"
      ],
      [
        "th",
        "ing"
      ],
      [
        "id",
        "es"
      ],
      [
        "iv",
        "ision"
      ],
      [
        "2",
        "8"
      ],
      [
        "ro",
        "le"
      ],
      [
        "l",
        "im"
      ],
      [
        "m",
        "ag"
      ],
      [
        "st",
        "ill"
      ],
      [
        "2",
        "3"
      ],
      [
        "ar",
        "n"
      ],
      [
        "for",
        "man"
      ],
      [
        "mo",
        "ve"
      ],
      [
        "end",
        "s"
      ],
      [
        "ivers",
        "ity"
      ],
      [
        "play",
        "er"
      ],
      [
        "pos",
        "si"
      ],
      [
        "C",
        "o"
      ],
      [
        "m",
        "p"
      ],
      [
        "ens",
        "ive"
      ],
      [
        "m",
        "id"
      ],
      [
        "loc",
        "al"
      ],
      [
        "G",
        "en"
      ],
      [
        "P",
        "e"
      ],
      [
        "g",
        "ed"
      ],
      [
        "In",
        "di"
      ],
      [
        "add",
        "ition"
      ],
      [
        "D",
        "y"
      ],
      [
        "1",
        "00"
      ],
      [
        "c",
        "ame"
      ],
      [
        "of",
        "ten"
      ],
      [
        "vers",
        "ion"
      ],
      [
        "p",
        "ut"
      ],
      [
        "v",
        "o"
      ],
      [
        "un",
        "d"
      ],
      [
        "hist",
        "ory"
      ],
      [
        "id",
        "ge"
      ],
      [
        "ak",
        "en"
      ],
      [
        "s",
        "ite"
      ],
      [
        "form",
        "er"
      ],
      [
        "ber",
        "t"
      ],
      [
        "s",
        "ay"
      ],
      [
        "qu",
        "ar"
      ],
      [
        "hal",
        "f"
      ],
      [
        "dra",
        "w"
      ],
      [
        "f",
        "el"
      ],
      [
        "urric",
        "ane"
      ],
      [
        "s",
        "ou"
      ],
      [
        "gg",
        "est"
      ],
      [
        "in",
        "it"
      ],
      [
        "l",
        "or"
      ],
      [
        "d",
        "en"
      ],
      [
        "end",
        "ing"
      ],
      [
        "continu",
        "ed"
      ],
      [
        "h",
        "ouse"
      ],
      [
        "r",
        "ound"
      ],
      [
        "al",
        "i"
      ],
      [
        "ut",
        "ion"
      ],
      [
        "bod",
        "y"
      ],
      [
        "consid",
        "ered"
      ],
      [
        "In",
        "ter"
      ],
      [
        "inn",
        "ing"
      ],
      [
        "su",
        "ggest"
      ],
      [
        "ne",
        "xt"
      ],
      [
        "200",
        "7"
      ],
      [
        "ef",
        "fect"
      ],
      [
        "O",
        "ne"
      ],
      [
        "m",
        "and"
      ],
      [
        "ar",
        "ed"
      ],
      [
        "ri",
        "but"
      ],
      [
        "re",
        "fer"
      ],
      [
        "f",
        "ri"
      ],
      [
        "sim",
        "ilar"
      ],
      [
        "plac",
        "ed"
      ],
      [
        "record",
        "ed"
      ],
      [
        "Eng",
        "lish"
      ],
      [
        "publ",
        "ished"
      ],
      [
        "F",
        "rench"
      ],
      [
        "im",
        "port"
      ],
      [
        "fe",
        "w"
      ],
      [
        "care",
        "er"
      ],
      [
        "w",
        "ind"
      ],
      [
        "he",
        "ld"
      ],
      [
        "be",
        "g"
      ],
      [
        "B",
        "att"
      ],
      [
        "P",
        "er"
      ],
      [
        "ast",
        "er"
      ],
      [
        "T",
        "e"
      ],
      [
        "at",
        "or"
      ],
      [
        "per",
        "forman"
      ],
      [
        "t",
        "ake"
      ],
      [
        "ch",
        "ang"
      ],
      [
        "produ",
        "ction"
      ],
      [
        "E",
        "ar"
      ],
      [
        "ic",
        "o"
      ],
      [
        "im",
        "es"
      ],
      [
        "pos",
        "ed"
      ],
      [
        "grap",
        "h"
      ],
      [
        "differ",
        "ent"
      ],
      [
        "st",
        "y"
      ],
      [
        "ain",
        "ing"
      ],
      [
        "comm",
        "un"
      ],
      [
        "p",
        "s"
      ],
      [
        "for",
        "t"
      ],
      [
        "b",
        "ar"
      ],
      [
        "c",
        "raft"
      ],
      [
        "W",
        "ith"
      ],
      [
        "B",
        "ar"
      ],
      [
        "y",
        "ou"
      ],
      [
        "ou",
        "te"
      ],
      [
        "with",
        "out"
      ],
      [
        "amp",
        "ion"
      ],
      [
        "song",
        "s"
      ],
      [
        "f",
        "r"
      ],
      [
        "writ",
        "ten"
      ],
      [
        "2",
        "7"
      ],
      [
        "act",
        "ion"
      ],
      [
        "pol",
        "it"
      ],
      [
        "M",
        "us"
      ],
      [
        "for",
        "ce"
      ],
      [
        "ev",
        "ed"
      ],
      [
        "str",
        "ong"
      ],
      [
        "am",
        "ong"
      ],
      [
        "stru",
        "ct"
      ],
      [
        "w",
        "ood"
      ],
      [
        "le",
        "vel"
      ],
      [
        "2",
        "2"
      ],
      [
        "S",
        "er"
      ],
      [
        "g",
        "l"
      ],
      [
        "for",
        "d"
      ],
      [
        "St",
        "ate"
      ],
      [
        "i",
        "k"
      ],
      [
        "se",
        "ven"
      ],
      [
        "im",
        "ent"
      ],
      [
        "T",
        "r"
      ],
      [
        "day",
        "s"
      ],
      [
        "ever",
        "y"
      ],
      [
        "ste",
        "ad"
      ],
      [
        "wh",
        "ite"
      ],
      [
        "Ch",
        "ar"
      ],
      [
        "olog",
        "y"
      ],
      [
        "f",
        "ire"
      ],
      [
        "w",
        "in"
      ],
      [
        "it",
        "er"
      ],
      [
        "it",
        "ar"
      ],
      [
        "D",
        "ivision"
      ],
      [
        "201",
        "1"
      ],
      [
        "lar",
        "g"
      ],
      [
        "rele",
        "ase"
      ],
      [
        "b",
        "ird"
      ],
      [
        "f",
        "oot"
      ],
      [
        "t",
        "ropical"
      ],
      [
        "fur",
        "ther"
      ],
      [
        "fin",
        "d"
      ],
      [
        "be",
        "come"
      ],
      [
        "200",
        "6"
      ],
      [
        "Ac",
        "cording"
      ],
      [
        "Ch",
        "urch"
      ],
      [
        "Al",
        "though"
      ],
      [
        "Can",
        "ad"
      ],
      [
        "h",
        "owever"
      ],
      [
        "te",
        "st"
      ],
      [
        "auth",
        "or"
      ],
      [
        "er",
        "ing"
      ],
      [
        "pr",
        "of"
      ],
      [
        "c",
        "or"
      ],
      [
        "p",
        "ite"
      ],
      [
        "au",
        "gh"
      ],
      [
        "res",
        "pon"
      ],
      [
        "partic",
        "ular"
      ],
      [
        "h",
        "ow"
      ],
      [
        "o",
        "x"
      ],
      [
        "w",
        "ide"
      ],
      [
        "P",
        "ort"
      ],
      [
        "tit",
        "le"
      ],
      [
        "f",
        "an"
      ],
      [
        "te",
        "le"
      ],
      [
        "T",
        "w"
      ],
      [
        "h",
        "old"
      ],
      [
        "n",
        "ing"
      ],
      [
        "mil",
        "itary"
      ],
      [
        "M",
        "o"
      ],
      [
        "R",
        "oman"
      ],
      [
        "mem",
        "bers"
      ],
      [
        "Le",
        "ague"
      ],
      [
        "pop",
        "ular"
      ],
      [
        "dire",
        "ct"
      ],
      [
        "c",
        "ial"
      ],
      [
        "c",
        "ult"
      ],
      [
        "s",
        "it"
      ],
      [
        "iv",
        "es"
      ],
      [
        "ction",
        "s"
      ],
      [
        "it",
        "ch"
      ],
      [
        "om",
        "in"
      ],
      [
        "hist",
        "or"
      ],
      [
        "itt",
        "le"
      ],
      [
        "u",
        "di"
      ],
      [
        "id",
        "ed"
      ],
      [
        "ic",
        "es"
      ],
      [
        "tim",
        "es"
      ],
      [
        "S",
        "ong"
      ],
      [
        "p",
        "en"
      ],
      [
        "br",
        "uary"
      ],
      [
        "Fe",
        "bruary"
      ],
      [
        "cle",
        "ar"
      ],
      [
        "P",
        "ol"
      ],
      [
        "u",
        "c"
      ],
      [
        "in",
        "du"
      ],
      [
        "mo",
        "der"
      ],
      [
        "lo",
        "st"
      ],
      [
        "sc",
        "en"
      ],
      [
        "b",
        "ur"
      ],
      [
        "Ge",
        "or"
      ],
      [
        "g",
        "ave"
      ],
      [
        "n",
        "a"
      ],
      [
        "produ",
        "ced"
      ],
      [
        "success",
        "ful"
      ],
      [
        "report",
        "ed"
      ],
      [
        "pro",
        "vid"
      ],
      [
        "Dy",
        "lan"
      ],
      [
        "M",
        "iss"
      ],
      [
        "di",
        "vid"
      ],
      [
        "ser",
        "ved"
      ],
      [
        "P",
        "ark"
      ],
      [
        "po",
        "st"
      ],
      [
        "ition",
        "s"
      ],
      [
        "am",
        "a"
      ],
      [
        "n",
        "ight"
      ],
      [
        "to",
        "tal"
      ],
      [
        "D",
        "es"
      ],
      [
        "f",
        "lo"
      ],
      [
        "b",
        "as"
      ],
      [
        "se",
        "arch"
      ],
      [
        "su",
        "re"
      ],
      [
        "aw",
        "ay"
      ],
      [
        "201",
        "2"
      ],
      [
        "O",
        "ld"
      ],
      [
        "ive",
        "ly"
      ],
      [
        "comm",
        "on"
      ],
      [
        "r",
        "ad"
      ],
      [
        "ne",
        "y"
      ],
      [
        "Com",
        "p"
      ],
      [
        "n",
        "et"
      ],
      [
        "ist",
        "er"
      ],
      [
        "de",
        "cl"
      ],
      [
        "child",
        "ren"
      ],
      [
        "giv",
        "en"
      ],
      [
        "ch",
        "n"
      ],
      [
        "ap",
        "an"
      ],
      [
        "H",
        "a"
      ],
      [
        "se",
        "en"
      ],
      [
        "for",
        "ces"
      ],
      [
        "S",
        "im"
      ],
      [
        "f",
        "ron"
      ],
      [
        "at",
        "ic"
      ],
      [
        "to",
        "ur"
      ],
      [
        "cept",
        "ion"
      ],
      [
        "se",
        "e"
      ],
      [
        "f",
        "ace"
      ],
      [
        "g",
        "es"
      ],
      [
        "v",
        "ict"
      ],
      [
        "st",
        "ated"
      ],
      [
        "el",
        "s"
      ],
      [
        "ha",
        "ving"
      ],
      [
        "cl",
        "ose"
      ],
      [
        "crit",
        "ic"
      ],
      [
        "J",
        "apan"
      ],
      [
        "om",
        "en"
      ],
      [
        "ab",
        "ly"
      ],
      [
        "ail",
        "ed"
      ],
      [
        "t",
        "ro"
      ],
      [
        "st",
        "re"
      ],
      [
        "pl",
        "an"
      ],
      [
        "ex",
        "p"
      ],
      [
        "incl",
        "ude"
      ],
      [
        "2",
        "9"
      ],
      [
        "T",
        "o"
      ],
      [
        "in",
        "vol"
      ],
      [
        "re",
        "present"
      ],
      [
        "C",
        "ount"
      ],
      [
        "g",
        "ar"
      ],
      [
        "m",
        "aking"
      ],
      [
        "in",
        "flu"
      ],
      [
        "cap",
        "t"
      ],
      [
        "N",
        "e"
      ],
      [
        "g",
        "reat"
      ],
      [
        "w",
        "ant"
      ],
      [
        "al",
        "ion"
      ],
      [
        "ed",
        "er"
      ],
      [
        "M",
        "a"
      ],
      [
        "Af",
        "ric"
      ],
      [
        "coun",
        "try"
      ],
      [
        "y",
        "oung"
      ],
      [
        "comp",
        "et"
      ],
      [
        "way",
        "s"
      ],
      [
        "pl",
        "oy"
      ],
      [
        "c",
        "us"
      ],
      [
        "i",
        "er"
      ],
      [
        "te",
        "ll"
      ],
      [
        "man",
        "ag"
      ],
      [
        "C",
        "ent"
      ],
      [
        "lo",
        "ok"
      ],
      [
        "sign",
        "ific"
      ],
      [
        "com",
        "b"
      ],
      [
        "pro",
        "gram"
      ],
      [
        "Gen",
        "eral"
      ],
      [
        "H",
        "ar"
      ],
      [
        "an",
        "ces"
      ],
      [
        "ant",
        "ic"
      ],
      [
        "land",
        "s"
      ],
      [
        "no",
        "vel"
      ],
      [
        "e",
        "qu"
      ],
      [
        "our",
        "s"
      ],
      [
        "201",
        "3"
      ],
      [
        "p",
        "ur"
      ],
      [
        "int",
        "ro"
      ],
      [
        "contro",
        "l"
      ],
      [
        "4",
        "0"
      ],
      [
        "f",
        "em"
      ],
      [
        "m",
        "m"
      ],
      [
        "oc",
        "cur"
      ],
      [
        "sc",
        "ri"
      ],
      [
        "A",
        "ir"
      ],
      [
        "w",
        "ent"
      ],
      [
        "w",
        "ord"
      ],
      [
        "ne",
        "ver"
      ],
      [
        "ren",
        "t"
      ],
      [
        "V",
        "i"
      ],
      [
        "r",
        "ap"
      ],
      [
        "om",
        "et"
      ],
      [
        "pro",
        "ject"
      ],
      [
        "comp",
        "os"
      ],
      [
        "dep",
        "end"
      ],
      [
        "B",
        "C"
      ],
      [
        "constru",
        "ction"
      ],
      [
        "l",
        "ished"
      ],
      [
        "sh",
        "ould"
      ],
      [
        "bo",
        "ard"
      ],
      [
        "chan",
        "ge"
      ],
      [
        "ra",
        "ised"
      ],
      [
        "act",
        "iv"
      ],
      [
        "Wh",
        "ile"
      ],
      [
        "mi",
        "x"
      ],
      [
        "D",
        "av"
      ],
      [
        "l",
        "aw"
      ],
      [
        "writ",
        "ing"
      ],
      [
        "Sc",
        "ot"
      ],
      [
        "s",
        "oci"
      ],
      [
        "x",
        "im"
      ],
      [
        "return",
        "ed"
      ],
      [
        "S",
        "u"
      ],
      [
        "f",
        "ather"
      ],
      [
        "op",
        "e"
      ],
      [
        "work",
        "s"
      ],
      [
        "Un",
        "iversity"
      ],
      [
        "develop",
        "ed"
      ],
      [
        "b",
        "or"
      ],
      [
        "ch",
        "art"
      ],
      [
        "are",
        "n"
      ],
      [
        "estab",
        "lished"
      ],
      [
        "k",
        "s"
      ],
      [
        "s",
        "ound"
      ],
      [
        "19",
        "0"
      ],
      [
        "ke",
        "y"
      ],
      [
        "E",
        "d"
      ],
      [
        "d",
        "ri"
      ],
      [
        "g",
        "od"
      ],
      [
        "ith",
        "er"
      ],
      [
        "Th",
        "ese"
      ],
      [
        "ann",
        "oun"
      ],
      [
        "Americ",
        "a"
      ],
      [
        "ro",
        "om"
      ],
      [
        "pop",
        "ulation"
      ],
      [
        "I",
        "re"
      ],
      [
        "n",
        "er"
      ],
      [
        "ad",
        "es"
      ],
      [
        "intro",
        "du"
      ],
      [
        "J",
        "ack"
      ],
      [
        "m",
        "it"
      ],
      [
        "com",
        "ing"
      ],
      [
        "am",
        "b"
      ],
      [
        "reach",
        "ed"
      ],
      [
        "C",
        "or"
      ],
      [
        "K",
        "e"
      ],
      [
        "i",
        "ent"
      ],
      [
        "ear",
        "li"
      ],
      [
        "ran",
        "ge"
      ],
      [
        "not",
        "ed"
      ],
      [
        "Ire",
        "land"
      ],
      [
        "ag",
        "re"
      ],
      [
        "Bl",
        "ack"
      ],
      [
        "ig",
        "ade"
      ],
      [
        "though",
        "t"
      ],
      [
        "um",
        "ent"
      ],
      [
        "build",
        "ing"
      ],
      [
        "ac",
        "ross"
      ],
      [
        "ty",
        "p"
      ],
      [
        "through",
        "out"
      ],
      [
        "ond",
        "on"
      ],
      [
        "M",
        "ich"
      ],
      [
        "ain",
        "t"
      ],
      [
        "ce",
        "ll"
      ],
      [
        "hum",
        "an"
      ],
      [
        "L",
        "ondon"
      ],
      [
        "h",
        "ip"
      ],
      [
        "s",
        "um"
      ],
      [
        "E",
        "x"
      ],
      [
        "E",
        "ast"
      ],
      [
        "te",
        "en"
      ],
      [
        "Wil",
        "liam"
      ],
      [
        "fel",
        "t"
      ],
      [
        "g",
        "ood"
      ],
      [
        "on",
        "es"
      ],
      [
        "ac",
        "y"
      ],
      [
        "ful",
        "l"
      ],
      [
        "b",
        "urn"
      ],
      [
        "ar",
        "a"
      ],
      [
        "him",
        "self"
      ],
      [
        "Re",
        "g"
      ],
      [
        "develop",
        "ment"
      ],
      [
        "B",
        "er"
      ],
      [
        "bl",
        "ack"
      ],
      [
        "med",
        "i"
      ],
      [
        "olog",
        "ical"
      ],
      [
        "W",
        "al"
      ],
      [
        "in",
        "ess"
      ],
      [
        "n",
        "d"
      ],
      [
        "per",
        "formed"
      ],
      [
        "f",
        "le"
      ],
      [
        "comple",
        "te"
      ],
      [
        "su",
        "ff"
      ],
      [
        "set",
        "t"
      ],
      [
        "Austral",
        "ia"
      ],
      [
        "import",
        "ant"
      ],
      [
        "signific",
        "ant"
      ],
      [
        "e",
        "ight"
      ],
      [
        "l",
        "ay"
      ],
      [
        "6",
        "0"
      ],
      [
        "cover",
        "ed"
      ],
      [
        "iv",
        "il"
      ],
      [
        "At",
        "l"
      ],
      [
        "mil",
        "es"
      ],
      [
        "M",
        "ag"
      ],
      [
        "i",
        "or"
      ],
      [
        "o",
        "v"
      ],
      [
        "un",
        "g"
      ],
      [
        "li",
        "ve"
      ],
      [
        "R",
        "ich"
      ],
      [
        "S",
        "y"
      ],
      [
        "b",
        "us"
      ],
      [
        "dest",
        "roy"
      ],
      [
        "moder",
        "n"
      ],
      [
        "n",
        "u"
      ],
      [
        "an",
        "a"
      ],
      [
        "it",
        "ive"
      ],
      [
        "inter",
        "est"
      ],
      [
        "tele",
        "vision"
      ],
      [
        "P",
        "al"
      ],
      [
        "R",
        "oy"
      ],
      [
        "r",
        "ing"
      ],
      [
        "vari",
        "ous"
      ],
      [
        "sty",
        "le"
      ],
      [
        "are",
        "as"
      ],
      [
        "pr",
        "im"
      ],
      [
        "fron",
        "t"
      ],
      [
        "appear",
        "ed"
      ],
      [
        "re",
        "w"
      ],
      [
        "di",
        "ed"
      ],
      [
        "a",
        "ign"
      ],
      [
        "c",
        "ing"
      ],
      [
        "c",
        "il"
      ],
      [
        "ne",
        "ed"
      ],
      [
        "ree",
        "k"
      ],
      [
        "og",
        "n"
      ],
      [
        "rel",
        "ation"
      ],
      [
        "T",
        "V"
      ],
      [
        "ag",
        "o"
      ],
      [
        "oth",
        "ers"
      ],
      [
        "m",
        "arri"
      ],
      [
        "ro",
        "ck"
      ],
      [
        "ev",
        "ents"
      ],
      [
        "do",
        "es"
      ],
      [
        "ot",
        "s"
      ],
      [
        "ab",
        "or"
      ],
      [
        "Ro",
        "ad"
      ],
      [
        "a",
        "ver"
      ],
      [
        "d",
        "a"
      ],
      [
        "m",
        "un"
      ],
      [
        "to",
        "o"
      ],
      [
        "se",
        "x"
      ],
      [
        "te",
        "chn"
      ],
      [
        "ap",
        "point"
      ],
      [
        "start",
        "ed"
      ],
      [
        "id",
        "ence"
      ],
      [
        "play",
        "ers"
      ],
      [
        "miss",
        "ion"
      ],
      [
        "H",
        "igh"
      ],
      [
        "J",
        "ames"
      ],
      [
        "f",
        "ig"
      ],
      [
        "om",
        "b"
      ],
      [
        "ge",
        "ther"
      ],
      [
        "P",
        "o"
      ],
      [
        "is",
        "on"
      ],
      [
        "ic",
        "ult"
      ],
      [
        "fe",
        "et"
      ],
      [
        "re",
        "en"
      ],
      [
        "st",
        "ant"
      ],
      [
        "ex",
        "peri"
      ],
      [
        "in",
        "o"
      ],
      [
        "it",
        "ing"
      ],
      [
        "po",
        "em"
      ],
      [
        "iz",
        "ation"
      ],
      [
        "Mon",
        "t"
      ],
      [
        "M",
        "ount"
      ],
      [
        "i",
        "ble"
      ],
      [
        "n",
        "al"
      ],
      [
        "v",
        "ill"
      ],
      [
        "in",
        "ation"
      ],
      [
        "performan",
        "ce"
      ],
      [
        "Count",
        "y"
      ],
      [
        "b",
        "es"
      ],
      [
        "s",
        "l"
      ],
      [
        "ca",
        "used"
      ],
      [
        "is",
        "ing"
      ],
      [
        "al",
        "th"
      ],
      [
        "pr",
        "ed"
      ],
      [
        "form",
        "ation"
      ],
      [
        "18",
        "9"
      ],
      [
        "A",
        "b"
      ],
      [
        "Y",
        "ou"
      ],
      [
        "E",
        "l"
      ],
      [
        "P",
        "a"
      ],
      [
        "k",
        "ed"
      ],
      [
        "qu",
        "ad"
      ],
      [
        "i",
        "fe"
      ],
      [
        "m",
        "ount"
      ],
      [
        "gr",
        "ad"
      ],
      [
        "H",
        "am"
      ],
      [
        "b",
        "orn"
      ],
      [
        "os",
        "aur"
      ],
      [
        "co",
        "ast"
      ],
      [
        "h",
        "ind"
      ],
      [
        "al",
        "ity"
      ],
      [
        "cre",
        "ated"
      ],
      [
        "Ph",
        "il"
      ],
      [
        "scri",
        "pt"
      ],
      [
        "200",
        "4"
      ],
      [
        "amp",
        "le"
      ],
      [
        "rel",
        "ig"
      ],
      [
        "r",
        "ul"
      ],
      [
        "ent",
        "ire"
      ],
      [
        "ul",
        "l"
      ],
      [
        "ab",
        "ility"
      ],
      [
        "200",
        "5"
      ],
      [
        "in",
        "v"
      ],
      [
        "er",
        "a"
      ],
      [
        "ver",
        "t"
      ],
      [
        "polit",
        "ical"
      ],
      [
        "S",
        "o"
      ],
      [
        "f",
        "ar"
      ],
      [
        "v",
        "an"
      ],
      [
        "mo",
        "ther"
      ],
      [
        "charac",
        "ters"
      ],
      [
        "c",
        "ir"
      ],
      [
        "the",
        "ast"
      ],
      [
        "al",
        "y"
      ],
      [
        "S",
        "ci"
      ],
      [
        "ion",
        "ed"
      ],
      [
        "le",
        "ct"
      ],
      [
        "S",
        "om"
      ],
      [
        "t",
        "aken"
      ],
      [
        "f",
        "ight"
      ],
      [
        "s",
        "w"
      ],
      [
        "st",
        "one"
      ],
      [
        "batt",
        "le"
      ],
      [
        "f",
        "av"
      ],
      [
        "on",
        "ce"
      ],
      [
        "ex",
        "ist"
      ],
      [
        "T",
        "own"
      ],
      [
        "c",
        "op"
      ],
      [
        "as",
        "ing"
      ],
      [
        "us",
        "es"
      ],
      [
        "ard",
        "ed"
      ],
      [
        "C",
        "are"
      ],
      [
        "H",
        "ist"
      ],
      [
        "y",
        "ard"
      ],
      [
        "an",
        "im"
      ],
      [
        "con",
        "ne"
      ],
      [
        "loc",
        "ated"
      ],
      [
        "kill",
        "ed"
      ],
      [
        "a",
        "el"
      ],
      [
        "l",
        "ines"
      ],
      [
        "u",
        "es"
      ],
      [
        "il",
        "le"
      ],
      [
        "remain",
        "ed"
      ],
      [
        "g",
        "row"
      ],
      [
        "u",
        "ck"
      ],
      [
        "trad",
        "ition"
      ],
      [
        "r",
        "ain"
      ],
      [
        "s",
        "ess"
      ],
      [
        "be",
        "t"
      ],
      [
        "de",
        "but"
      ],
      [
        "kn",
        "ow"
      ],
      [
        "comple",
        "ted"
      ],
      [
        "Mus",
        "ic"
      ],
      [
        "F",
        "eder"
      ],
      [
        "sc",
        "ored"
      ],
      [
        "ubl",
        "ic"
      ],
      [
        "diff",
        "icult"
      ],
      [
        "gun",
        "s"
      ],
      [
        "King",
        "dom"
      ],
      [
        "h",
        "ar"
      ],
      [
        "t",
        "ar"
      ],
      [
        "camp",
        "aign"
      ],
      [
        "announ",
        "ced"
      ],
      [
        "C",
        "up"
      ],
      [
        "h",
        "ost"
      ],
      [
        "p",
        "ing"
      ],
      [
        "st",
        "ars"
      ],
      [
        "ap",
        "e"
      ],
      [
        "me",
        "et"
      ],
      [
        "Gr",
        "and"
      ],
      [
        "Austral",
        "ian"
      ],
      [
        "st",
        "at"
      ],
      [
        "pe",
        "ak"
      ],
      [
        "reg",
        "ion"
      ],
      [
        "h",
        "ab"
      ],
      [
        "n",
        "ames"
      ],
      [
        "or",
        "ies"
      ],
      [
        "be",
        "l"
      ],
      [
        "An",
        "g"
      ],
      [
        "S",
        "un"
      ],
      [
        "pro",
        "cess"
      ],
      [
        "go",
        "al"
      ],
      [
        "Comp",
        "any"
      ],
      [
        "l",
        "ittle"
      ],
      [
        "in",
        "stead"
      ],
      [
        "add",
        "ed"
      ],
      [
        "bre",
        "ak"
      ],
      [
        "en",
        "ced"
      ],
      [
        "mem",
        "ber"
      ],
      [
        "ele",
        "ct"
      ],
      [
        "possi",
        "ble"
      ],
      [
        "g",
        "in"
      ],
      [
        "st",
        "udi"
      ],
      [
        "ve",
        "st"
      ],
      [
        "reg",
        "ular"
      ],
      [
        "press",
        "ion"
      ],
      [
        "v",
        "oc"
      ],
      [
        "w",
        "ife"
      ],
      [
        "is",
        "land"
      ],
      [
        "le",
        "ast"
      ],
      [
        "follow",
        "ed"
      ],
      [
        "or",
        "se"
      ],
      [
        "p",
        "air"
      ],
      [
        "to",
        "gether"
      ],
      [
        "ap",
        "er"
      ],
      [
        "c",
        "ause"
      ],
      [
        "t",
        "re"
      ],
      [
        "origin",
        "ally"
      ],
      [
        "month",
        "s"
      ],
      [
        "sou",
        "thern"
      ],
      [
        "m",
        "ot"
      ],
      [
        "m",
        "ass"
      ],
      [
        "n",
        "on"
      ],
      [
        "n",
        "ed"
      ],
      [
        "com",
        "ment"
      ],
      [
        "Ar",
        "my"
      ],
      [
        "B",
        "ra"
      ],
      [
        "S",
        "ome"
      ],
      [
        "i",
        "que"
      ],
      [
        "k",
        "y"
      ],
      [
        "l",
        "oss"
      ],
      [
        "w",
        "all"
      ],
      [
        "res",
        "ident"
      ],
      [
        "ass",
        "oci"
      ],
      [
        "stud",
        "y"
      ],
      [
        "Dav",
        "id"
      ],
      [
        "B",
        "ill"
      ],
      [
        "f",
        "if"
      ],
      [
        "ot",
        "a"
      ],
      [
        "play",
        "ing"
      ],
      [
        "c",
        "ru"
      ],
      [
        "h",
        "urricane"
      ],
      [
        "s",
        "port"
      ],
      [
        "w",
        "omen"
      ],
      [
        "en",
        "ed"
      ],
      [
        "Fran",
        "ce"
      ],
      [
        "E",
        "v"
      ],
      [
        "b",
        "road"
      ],
      [
        "g",
        "ot"
      ],
      [
        "re",
        "li"
      ],
      [
        "rec",
        "ogn"
      ],
      [
        "cons",
        "ist"
      ],
      [
        "open",
        "ed"
      ],
      [
        "3",
        "5"
      ],
      [
        "ter",
        "min"
      ],
      [
        "east",
        "ern"
      ],
      [
        "c",
        "arri"
      ],
      [
        "at",
        "a"
      ],
      [
        "crit",
        "ics"
      ],
      [
        "Ch",
        "ampion"
      ],
      [
        "200",
        "3"
      ],
      [
        "b",
        "ase"
      ],
      [
        "os",
        "p"
      ],
      [
        "Ro",
        "bert"
      ],
      [
        "event",
        "ually"
      ],
      [
        "prof",
        "ess"
      ],
      [
        "L",
        "ove"
      ],
      [
        "e",
        "y"
      ],
      [
        "h",
        "o"
      ],
      [
        "od",
        "es"
      ],
      [
        "est",
        "im"
      ],
      [
        "feat",
        "ures"
      ],
      [
        "cer",
        "t"
      ],
      [
        "G",
        "od"
      ],
      [
        "M",
        "in"
      ],
      [
        "d",
        "on"
      ],
      [
        "m",
        "ph"
      ],
      [
        "201",
        "5"
      ],
      [
        "cre",
        "t"
      ],
      [
        "S",
        "A"
      ],
      [
        "four",
        "th"
      ],
      [
        "D",
        "u"
      ],
      [
        "V",
        "al"
      ],
      [
        "r",
        "oute"
      ],
      [
        "dec",
        "ided"
      ],
      [
        "bird",
        "s"
      ],
      [
        "v",
        "ir"
      ],
      [
        "for",
        "ced"
      ],
      [
        "cl",
        "os"
      ],
      [
        "av",
        "ing"
      ],
      [
        "tem",
        "por"
      ],
      [
        "Tw",
        "o"
      ],
      [
        "s",
        "aw"
      ],
      [
        "ac",
        "cept"
      ],
      [
        "comm",
        "er"
      ],
      [
        "point",
        "s"
      ],
      [
        "grap",
        "hy"
      ],
      [
        "in",
        "al"
      ],
      [
        "ill",
        "a"
      ],
      [
        "l",
        "ack"
      ],
      [
        "dam",
        "age"
      ],
      [
        "s",
        "old"
      ],
      [
        "ic",
        "a"
      ],
      [
        "ic",
        "ated"
      ],
      [
        "he",
        "avy"
      ],
      [
        "im",
        "pro"
      ],
      [
        "lead",
        "ing"
      ],
      [
        "az",
        "ine"
      ],
      [
        "d",
        "ed"
      ],
      [
        "e",
        "ither"
      ],
      [
        "p",
        "at"
      ],
      [
        "cur",
        "rent"
      ],
      [
        "Batt",
        "alion"
      ],
      [
        "H",
        "en"
      ],
      [
        "M",
        "i"
      ],
      [
        "S",
        "w"
      ],
      [
        "se",
        "par"
      ],
      [
        "pro",
        "ble"
      ],
      [
        "form",
        "s"
      ],
      [
        "ric",
        "k"
      ],
      [
        "writ",
        "er"
      ],
      [
        "c",
        "up"
      ],
      [
        "n",
        "ar"
      ],
      [
        "p",
        "ie"
      ],
      [
        "be",
        "hind"
      ],
      [
        "fin",
        "ished"
      ],
      [
        "fri",
        "end"
      ],
      [
        "3",
        "1"
      ],
      [
        "d",
        "ou"
      ],
      [
        "u",
        "g"
      ],
      [
        "in",
        "divid"
      ],
      [
        "beli",
        "eved"
      ],
      [
        "Care",
        "y"
      ],
      [
        "M",
        "ad"
      ],
      [
        "P",
        "art"
      ],
      [
        "d",
        "le"
      ],
      [
        "spec",
        "ial"
      ],
      [
        "liam",
        "ent"
      ],
      [
        "claim",
        "ed"
      ],
      [
        "vi",
        "er"
      ],
      [
        "cond",
        "om"
      ],
      [
        "M",
        "or"
      ],
      [
        "R",
        "ed"
      ],
      [
        "m",
        "ater"
      ],
      [
        "id",
        "a"
      ],
      [
        "res",
        "pect"
      ],
      [
        "appear",
        "ance"
      ],
      [
        "Roy",
        "al"
      ],
      [
        "ign",
        "ed"
      ],
      [
        "Pl",
        "ay"
      ],
      [
        "2",
        "nd"
      ],
      [
        "A",
        "m"
      ],
      [
        "M",
        "ed"
      ],
      [
        "s",
        "en"
      ],
      [
        "s",
        "our"
      ],
      [
        "ll",
        "ed"
      ],
      [
        "fan",
        "try"
      ],
      [
        "8",
        "0"
      ],
      [
        "M",
        "ex"
      ],
      [
        "em",
        "ploy"
      ],
      [
        "ex",
        "ample"
      ],
      [
        "St",
        "re"
      ],
      [
        "cent",
        "ral"
      ],
      [
        "lan",
        "gu"
      ],
      [
        "serv",
        "ice"
      ],
      [
        "D",
        "ay"
      ],
      [
        "y",
        "ards"
      ],
      [
        "al",
        "most"
      ],
      [
        "ing",
        "ton"
      ],
      [
        "av",
        "es"
      ],
      [
        "Wh",
        "ite"
      ],
      [
        "dire",
        "cted"
      ],
      [
        "west",
        "ern"
      ],
      [
        "7",
        "0"
      ],
      [
        "G",
        "ame"
      ],
      [
        "c",
        "ase"
      ],
      [
        "l",
        "in"
      ],
      [
        "com",
        "pl"
      ],
      [
        "comp",
        "an"
      ],
      [
        "vi",
        "a"
      ],
      [
        "Europe",
        "an"
      ],
      [
        "at",
        "ors"
      ],
      [
        "te",
        "l"
      ],
      [
        "ant",
        "i"
      ],
      [
        "me",
        "an"
      ],
      [
        "gener",
        "ally"
      ],
      [
        "Feder",
        "er"
      ],
      [
        "c",
        "ul"
      ],
      [
        "h",
        "on"
      ],
      [
        "to",
        "wards"
      ],
      [
        "ele",
        "ments"
      ],
      [
        "A",
        "ct"
      ],
      [
        "he",
        "el"
      ],
      [
        "ri",
        "ver"
      ],
      [
        "gen",
        "eral"
      ],
      [
        "O",
        "li"
      ],
      [
        "c",
        "ross"
      ],
      [
        "t",
        "ail"
      ],
      [
        "ur",
        "b"
      ],
      [
        "ter",
        "m"
      ],
      [
        "con",
        "cl"
      ],
      [
        "ass",
        "ist"
      ],
      [
        "str",
        "y"
      ],
      [
        "low",
        "er"
      ],
      [
        "br",
        "ought"
      ],
      [
        "Br",
        "igade"
      ],
      [
        "read",
        "y"
      ],
      [
        "week",
        "s"
      ],
      [
        "W",
        "ales"
      ],
      [
        "f",
        "ly"
      ],
      [
        "st",
        "age"
      ],
      [
        "ce",
        "ed"
      ],
      [
        "up",
        "on"
      ],
      [
        "sp",
        "ir"
      ],
      [
        "hel",
        "p"
      ],
      [
        "Inter",
        "national"
      ],
      [
        "F",
        "lor"
      ],
      [
        "S",
        "an"
      ],
      [
        "in",
        "ch"
      ]
    ]
  }
}